const char model_TFLite[] = {
  0x20, 0x00, 0x00, 0x00, 0x54, 0x46, 0x4c, 0x33, 0x00, 0x00, 0x00, 0x00,
  0x14, 0x00, 0x20, 0x00, 0x1c, 0x00, 0x18, 0x00, 0x14, 0x00, 0x10, 0x00,
  0x0c, 0x00, 0x00, 0x00, 0x08, 0x00, 0x04, 0x00, 0x14, 0x00, 0x00, 0x00,
  0x1c, 0x00, 0x00, 0x00, 0x88, 0x00, 0x00, 0x00, 0xe0, 0x00, 0x00, 0x00,
  0xd4, 0x25, 0x00, 0x00, 0xe4, 0x25, 0x00, 0x00, 0xfc, 0x36, 0x00, 0x00,
  0x03, 0x00, 0x00, 0x00, 0x01, 0x00, 0x00, 0x00, 0x04, 0x00, 0x00, 0x00,
  0x22, 0xd9, 0xff, 0xff, 0x0c, 0x00, 0x00, 0x00, 0x1c, 0x00, 0x00, 0x00,
  0x38, 0x00, 0x00, 0x00, 0x0f, 0x00, 0x00, 0x00, 0x73, 0x65, 0x72, 0x76,
  0x69, 0x6e, 0x67, 0x5f, 0x64, 0x65, 0x66, 0x61, 0x75, 0x6c, 0x74, 0x00,
  0x01, 0x00, 0x00, 0x00, 0x04, 0x00, 0x00, 0x00, 0x94, 0xff, 0xff, 0xff,
  0x11, 0x00, 0x00, 0x00, 0x04, 0x00, 0x00, 0x00, 0x07, 0x00, 0x00, 0x00,
  0x64, 0x65, 0x6e, 0x73, 0x65, 0x5f, 0x33, 0x00, 0x01, 0x00, 0x00, 0x00,
  0x04, 0x00, 0x00, 0x00, 0x02, 0xda, 0xff, 0xff, 0x04, 0x00, 0x00, 0x00,
  0x0e, 0x00, 0x00, 0x00, 0x63, 0x6f, 0x6e, 0x76, 0x32, 0x64, 0x5f, 0x32,
  0x5f, 0x69, 0x6e, 0x70, 0x75, 0x74, 0x00, 0x00, 0x02, 0x00, 0x00, 0x00,
  0x34, 0x00, 0x00, 0x00, 0x04, 0x00, 0x00, 0x00, 0xdc, 0xff, 0xff, 0xff,
  0x14, 0x00, 0x00, 0x00, 0x04, 0x00, 0x00, 0x00, 0x13, 0x00, 0x00, 0x00,
  0x43, 0x4f, 0x4e, 0x56, 0x45, 0x52, 0x53, 0x49, 0x4f, 0x4e, 0x5f, 0x4d,
  0x45, 0x54, 0x41, 0x44, 0x41, 0x54, 0x41, 0x00, 0x08, 0x00, 0x0c, 0x00,
  0x08, 0x00, 0x04, 0x00, 0x08, 0x00, 0x00, 0x00, 0x13, 0x00, 0x00, 0x00,
  0x04, 0x00, 0x00, 0x00, 0x13, 0x00, 0x00, 0x00, 0x6d, 0x69, 0x6e, 0x5f,
  0x72, 0x75, 0x6e, 0x74, 0x69, 0x6d, 0x65, 0x5f, 0x76, 0x65, 0x72, 0x73,
  0x69, 0x6f, 0x6e, 0x00, 0x15, 0x00, 0x00, 0x00, 0xf0, 0x24, 0x00, 0x00,
  0xe8, 0x24, 0x00, 0x00, 0xd0, 0x24, 0x00, 0x00, 0xac, 0x24, 0x00, 0x00,
  0x4c, 0x24, 0x00, 0x00, 0xfc, 0x23, 0x00, 0x00, 0xec, 0x14, 0x00, 0x00,
  0x9c, 0x14, 0x00, 0x00, 0x8c, 0x02, 0x00, 0x00, 0xfc, 0x01, 0x00, 0x00,
  0xcc, 0x00, 0x00, 0x00, 0xc4, 0x00, 0x00, 0x00, 0xbc, 0x00, 0x00, 0x00,
  0xb4, 0x00, 0x00, 0x00, 0xac, 0x00, 0x00, 0x00, 0xa4, 0x00, 0x00, 0x00,
  0x9c, 0x00, 0x00, 0x00, 0x94, 0x00, 0x00, 0x00, 0x8c, 0x00, 0x00, 0x00,
  0x6c, 0x00, 0x00, 0x00, 0x04, 0x00, 0x00, 0x00, 0xd2, 0xda, 0xff, 0xff,
  0x04, 0x00, 0x00, 0x00, 0x58, 0x00, 0x00, 0x00, 0x0c, 0x00, 0x00, 0x00,
  0x08, 0x00, 0x0e, 0x00, 0x08, 0x00, 0x04, 0x00, 0x08, 0x00, 0x00, 0x00,
  0x10, 0x00, 0x00, 0x00, 0x28, 0x00, 0x00, 0x00, 0x00, 0x00, 0x06, 0x00,
  0x08, 0x00, 0x04, 0x00, 0x06, 0x00, 0x00, 0x00, 0x04, 0x00, 0x00, 0x00,
  0x01, 0x00, 0x00, 0x00, 0xeb, 0x03, 0x00, 0x00, 0x00, 0x00, 0x0a, 0x00,
  0x10, 0x00, 0x0c, 0x00, 0x08, 0x00, 0x04, 0x00, 0x0a, 0x00, 0x00, 0x00,
  0x02, 0x00, 0x00, 0x00, 0x02, 0x00, 0x00, 0x00, 0x04, 0x00, 0x00, 0x00,
  0x06, 0x00, 0x00, 0x00, 0x32, 0x2e, 0x31, 0x33, 0x2e, 0x30, 0x00, 0x00,
  0x36, 0xdb, 0xff, 0xff, 0x04, 0x00, 0x00, 0x00, 0x10, 0x00, 0x00, 0x00,
  0x31, 0x2e, 0x31, 0x34, 0x2e, 0x30, 0x00, 0x00, 0x00, 0x00, 0x00, 0x00,
  0x00, 0x00, 0x00, 0x00, 0x98, 0xcb, 0xff, 0xff, 0x9c, 0xcb, 0xff, 0xff,
  0xa0, 0xcb, 0xff, 0xff, 0xa4, 0xcb, 0xff, 0xff, 0xa8, 0xcb, 0xff, 0xff,
  0xac, 0xcb, 0xff, 0xff, 0xb0, 0xcb, 0xff, 0xff, 0xb4, 0xcb, 0xff, 0xff,
  0x72, 0xdb, 0xff, 0xff, 0x04, 0x00, 0x00, 0x00, 0x20, 0x01, 0x00, 0x00,
  0x68, 0xc5, 0xa4, 0xfd, 0x81, 0xe6, 0x2a, 0xcd, 0xea, 0x8b, 0xbb, 0x24,
  0xae, 0x4a, 0x81, 0xef, 0x72, 0xf5, 0x0f, 0xb3, 0x81, 0xd0, 0xd0, 0x4d,
  0x77, 0x68, 0xf3, 0xcd, 0x69, 0x47, 0xd7, 0x81, 0x57, 0xa5, 0x54, 0x20,
  0x3c, 0x8b, 0xe0, 0x7f, 0xc9, 0x10, 0x24, 0x12, 0x90, 0x85, 0xe5, 0x6b,
  0xe1, 0x03, 0x4f, 0x2f, 0x81, 0x4b, 0x2a, 0x9c, 0xcb, 0x70, 0x7f, 0xad,
  0xde, 0x11, 0x3b, 0x7f, 0x1a, 0x63, 0x0f, 0x47, 0xe0, 0x1e, 0x9e, 0xd7,
  0xca, 0x51, 0x7e, 0xa6, 0x7e, 0x36, 0x7d, 0x7f, 0xd2, 0xdc, 0x98, 0x26,
  0xe3, 0xbc, 0x6f, 0xf7, 0x9b, 0x81, 0xd9, 0x8a, 0x81, 0x42, 0x09, 0x7f,
  0xdb, 0xbc, 0xe8, 0xe4, 0x51, 0xdd, 0x63, 0xab, 0xc9, 0xe1, 0x81, 0xe8,
  0xb7, 0xdc, 0x8d, 0x7f, 0xe2, 0x20, 0x8c, 0x0a, 0x96, 0x63, 0x81, 0x83,
  0x1d, 0x00, 0xf0, 0x2a, 0x0a, 0x59, 0x3a, 0xf5, 0x7f, 0xd2, 0x7c, 0xae,
  0x8c, 0xae, 0xae, 0x00, 0x60, 0x6b, 0xd1, 0x8c, 0x96, 0x1e, 0x1e, 0x81,
  0xbe, 0x1e, 0x7f, 0xbe, 0x63, 0xa8, 0x3e, 0x54, 0x0a, 0x17, 0x49, 0x81,
  0xc5, 0x7b, 0xa9, 0xa6, 0xc5, 0x20, 0x31, 0x04, 0xc0, 0x46, 0xfe, 0x81,
  0xf6, 0xf1, 0x44, 0x9d, 0xa8, 0x7f, 0xf0, 0xec, 0x61, 0xf7, 0xd5, 0xd0,
  0x56, 0x52, 0xd9, 0x9b, 0x8f, 0x7f, 0xb8, 0x0c, 0xda, 0x7f, 0x5a, 0x13,
  0x3f, 0xae, 0x60, 0x96, 0x53, 0x76, 0x1a, 0xb6, 0x69, 0x9b, 0x08, 0x81,
  0xd3, 0x08, 0x48, 0x2a, 0xe4, 0xd2, 0xaa, 0x28, 0x7f, 0x24, 0x2a, 0x5e,
  0x96, 0x61, 0xd5, 0xc5, 0x4f, 0x46, 0xbf, 0x85, 0x81, 0x79, 0xf0, 0x7f,
  0x5c, 0x20, 0x0e, 0x90, 0xe6, 0x69, 0x7a, 0xfd, 0xaf, 0x99, 0xdf, 0xdf,
  0x81, 0xf8, 0x0d, 0xcc, 0x3e, 0x5b, 0x5d, 0x7f, 0xa7, 0xeb, 0x34, 0xd7,
  0xfe, 0x3b, 0xe5, 0xa8, 0x7f, 0xf3, 0x4a, 0xfb, 0x05, 0x7f, 0x96, 0x23,
  0x6e, 0x90, 0x2a, 0x51, 0xc1, 0x47, 0xea, 0x6c, 0x37, 0x81, 0xb6, 0x0c,
  0x3c, 0x4f, 0xd9, 0xd1, 0xda, 0x07, 0x47, 0xde, 0x29, 0xbf, 0x1a, 0x81,
  0x9e, 0xdc, 0xff, 0xff, 0x04, 0x00, 0x00, 0x00, 0x80, 0x00, 0x00, 0x00,
  0x6d, 0x00, 0x00, 0x00, 0xcf, 0xff, 0xff, 0xff, 0xf7, 0xff, 0xff, 0xff,
  0x08, 0x00, 0x00, 0x00, 0x21, 0x00, 0x00, 0x00, 0xd2, 0xff, 0xff, 0xff,
  0x3b, 0x00, 0x00, 0x00, 0xfb, 0xff, 0xff, 0xff, 0xd2, 0xff, 0xff, 0xff,
  0x04, 0x00, 0x00, 0x00, 0xf2, 0xff, 0xff, 0xff, 0xde, 0xff, 0xff, 0xff,
  0x18, 0x00, 0x00, 0x00, 0xd3, 0xff, 0xff, 0xff, 0x08, 0x00, 0x00, 0x00,
  0x3e, 0x00, 0x00, 0x00, 0xd0, 0xff, 0xff, 0xff, 0x08, 0x00, 0x00, 0x00,
  0x8e, 0x00, 0x00, 0x00, 0x15, 0x00, 0x00, 0x00, 0x11, 0x00, 0x00, 0x00,
  0xd9, 0xff, 0xff, 0xff, 0x13, 0x00, 0x00, 0x00, 0xb3, 0xff, 0xff, 0xff,
  0x23, 0x00, 0x00, 0x00, 0xeb, 0xff, 0xff, 0xff, 0x11, 0x01, 0x00, 0x00,
  0xd3, 0xff, 0xff, 0xff, 0x03, 0x00, 0x00, 0x00, 0x07, 0x00, 0x00, 0x00,
  0xd8, 0xff, 0xff, 0xff, 0x6d, 0x00, 0x00, 0x00, 0x2a, 0xdd, 0xff, 0xff,
  0x04, 0x00, 0x00, 0x00, 0x00, 0x12, 0x00, 0x00, 0x9a, 0x57, 0xd6, 0xdb,
  0xdd, 0x2d, 0xb5, 0x43, 0xe3, 0xa4, 0xd1, 0xa0, 0xe5, 0x13, 0x03, 0xc2,
  0xe1, 0xe7, 0xe1, 0xdc, 0xd6, 0x20, 0xc5, 0x25, 0xc4, 0x41, 0xb4, 0xe4,
  0x23, 0xe2, 0xf6, 0xdd, 0xc8, 0x29, 0xbf, 0x16, 0xe6, 0x21, 0xc7, 0x0f,
  0x4c, 0xe1, 0x02, 0xe7, 0xc4, 0x01, 0xad, 0x40, 0x2e, 0xd8, 0xe1, 0x1f,
  0x28, 0x26, 0xcc, 0x39, 0x14, 0x35, 0x1c, 0x01, 0x3e, 0x10, 0xf8, 0xc2,
  0xc5, 0xd6, 0x21, 0xe5, 0x46, 0xdc, 0xe4, 0xf3, 0xfb, 0xe1, 0x1a, 0x1c,
  0xf0, 0x33, 0x14, 0xac, 0x1d, 0x12, 0xec, 0xee, 0xc9, 0x02, 0xbb, 0xc0,
  0xd2, 0x12, 0xc4, 0xcc, 0x51, 0xcf, 0x28, 0x08, 0x91, 0xd0, 0xab, 0x4d,
  0xb4, 0x4c, 0x21, 0x37, 0x21, 0xc1, 0xc0, 0xd4, 0xc2, 0x27, 0x26, 0xd3,
  0xe0, 0xfb, 0xde, 0x23, 0x03, 0xf9, 0xc1, 0xce, 0x3c, 0xf9, 0xf7, 0xd4,
  0xbe, 0x3d, 0xd8, 0xcd, 0xc3, 0xfd, 0x28, 0x4b, 0xc8, 0xe0, 0xd7, 0x2e,
  0x2c, 0x43, 0xfd, 0x44, 0x1c, 0xd7, 0xfd, 0xe6, 0x0c, 0x2d, 0x09, 0xee,
  0xeb, 0x26, 0x07, 0x41, 0xe0, 0xe1, 0x16, 0x40, 0xdc, 0xe5, 0x2a, 0x35,
  0xac, 0xbf, 0x26, 0x18, 0x22, 0xed, 0xd8, 0xdb, 0x1a, 0xe6, 0xfd, 0xba,
  0x0f, 0xca, 0x01, 0xac, 0xdd, 0x4c, 0xe5, 0x15, 0x34, 0xea, 0x26, 0x0f,
  0x16, 0xf7, 0x4a, 0xc5, 0x2a, 0xe4, 0x1c, 0x04, 0xb7, 0xe7, 0x1e, 0x17,
  0x00, 0xf1, 0x11, 0xbf, 0xc1, 0xcf, 0xe9, 0xb8, 0x33, 0xb9, 0xd4, 0x5d,
  0x1a, 0x2a, 0xf9, 0x44, 0xd6, 0xdd, 0xde, 0x21, 0x05, 0x2e, 0x7f, 0xec,
  0xfe, 0x22, 0xcf, 0xc5, 0x90, 0x20, 0x2b, 0x46, 0xd9, 0xd0, 0xcc, 0x39,
  0x26, 0xe0, 0x07, 0xd4, 0xac, 0xcd, 0xcc, 0x26, 0xd7, 0x41, 0xd6, 0x3f,
  0xe6, 0x3a, 0x0e, 0xc1, 0x38, 0xd2, 0xd4, 0x36, 0x3d, 0x29, 0x1c, 0xe5,
  0xa6, 0x16, 0x31, 0xb3, 0xd8, 0xbb, 0xcb, 0xd7, 0x31, 0x21, 0xbf, 0xf4,
  0xe5, 0x1c, 0xfd, 0x07, 0x3d, 0x1a, 0x1d, 0x97, 0xfa, 0x0c, 0x08, 0xc8,
  0xef, 0xbd, 0x61, 0xfe, 0x31, 0xeb, 0x27, 0x0f, 0x1f, 0xd6, 0xc5, 0x11,
  0x38, 0xfa, 0xfa, 0xd1, 0xe7, 0x01, 0xd7, 0x19, 0xf7, 0x1d, 0x11, 0x39,
  0xfe, 0x00, 0xdf, 0xe7, 0xee, 0x24, 0xe1, 0x1a, 0x12, 0xd0, 0x97, 0x0f,
  0x2e, 0xdb, 0x04, 0xb5, 0x21, 0x2a, 0xea, 0xcf, 0xe7, 0x20, 0x15, 0xe2,
  0xe3, 0xe5, 0xe2, 0xd4, 0xfc, 0x0e, 0x0b, 0xba, 0x37, 0xeb, 0x29, 0x01,
  0xf4, 0xe7, 0x32, 0x10, 0xc2, 0x08, 0x15, 0xf3, 0xc9, 0xda, 0x31, 0xd6,
  0xf0, 0xd6, 0xee, 0xcf, 0xe5, 0xfe, 0xdd, 0xf2, 0x2b, 0x22, 0xca, 0x35,
  0xea, 0x1d, 0x3a, 0xcf, 0x20, 0xf8, 0xd8, 0x20, 0xd9, 0x0a, 0xed, 0x28,
  0x41, 0x2a, 0x19, 0x1a, 0x18, 0x06, 0x0f, 0xd8, 0xd0, 0xd1, 0xfe, 0x0a,
  0x35, 0x0a, 0xdd, 0x0e, 0x0a, 0x0c, 0x0b, 0xb6, 0xef, 0x17, 0x15, 0xec,
  0x26, 0xbd, 0x31, 0xf3, 0xf1, 0xe0, 0xde, 0x13, 0xe3, 0xfe, 0xb5, 0x12,
  0xfc, 0x1d, 0xfb, 0x28, 0x47, 0xf1, 0xde, 0x0c, 0xe9, 0x19, 0xc7, 0x03,
  0x24, 0x08, 0x0e, 0x03, 0xc8, 0x07, 0x30, 0xc4, 0xd7, 0x4d, 0x16, 0x15,
  0x25, 0x2c, 0x06, 0xfe, 0xe1, 0x0f, 0x81, 0x0e, 0x15, 0x36, 0x1c, 0xf1,
  0xe8, 0xbe, 0xf0, 0x15, 0x0e, 0xc4, 0xf2, 0x28, 0x26, 0x3b, 0xe8, 0x23,
  0xcc, 0x19, 0xfe, 0x26, 0x19, 0xce, 0xd0, 0xdf, 0xf6, 0x0c, 0xe2, 0x22,
  0x36, 0xf6, 0xef, 0x16, 0xd1, 0xc8, 0x25, 0xed, 0xdc, 0x01, 0x09, 0xe1,
  0x18, 0xd3, 0x13, 0x30, 0x12, 0x48, 0xa4, 0x41, 0xfa, 0x0e, 0x35, 0x1b,
  0x11, 0x07, 0xd4, 0x0f, 0xcc, 0x16, 0x31, 0xea, 0x3c, 0x2d, 0x0c, 0x2d,
  0xdc, 0x18, 0xfa, 0x3a, 0x4e, 0xc0, 0x29, 0x0d, 0x41, 0x28, 0x1f, 0xfd,
  0xc4, 0xe5, 0x21, 0x36, 0x14, 0x12, 0xe7, 0xe5, 0xf5, 0xfd, 0xc7, 0xc9,
  0x1b, 0xce, 0x2d, 0xee, 0xe3, 0xcc, 0x9e, 0xc5, 0xd7, 0xd1, 0x36, 0xbb,
  0xeb, 0x27, 0xe3, 0xfe, 0x1c, 0x0a, 0xc4, 0x2d, 0x0b, 0x31, 0x28, 0xe2,
  0xe9, 0x16, 0x12, 0x1c, 0x32, 0xcc, 0xcf, 0xf5, 0x1b, 0xf3, 0xd3, 0xd0,
  0x19, 0xcf, 0xe8, 0xea, 0x0b, 0x16, 0x16, 0xed, 0xfa, 0x1c, 0xd5, 0x00,
  0x0c, 0xc2, 0x35, 0xce, 0x38, 0xf8, 0xe9, 0x32, 0xe7, 0xe2, 0xf6, 0x0c,
  0xdc, 0xe1, 0xc3, 0xfb, 0xdc, 0x21, 0xb1, 0x1e, 0x9a, 0x08, 0xda, 0xd8,
  0x07, 0xe3, 0x2d, 0xa4, 0x1f, 0xd1, 0x19, 0x13, 0xda, 0xe0, 0xc7, 0xba,
  0x33, 0xdb, 0xf0, 0x3b, 0x08, 0x16, 0x4d, 0x24, 0xd4, 0x26, 0xe7, 0x01,
  0xff, 0x02, 0xc5, 0x0b, 0xba, 0xe4, 0x0c, 0xf4, 0xf8, 0x28, 0x32, 0x05,
  0x1a, 0xe3, 0xdf, 0x2e, 0x0c, 0x19, 0xcb, 0x22, 0xc6, 0xd7, 0x26, 0xe9,
  0xf9, 0x33, 0xdd, 0x2f, 0x0f, 0xd4, 0x37, 0x15, 0xdd, 0xf7, 0x02, 0x0c,
  0xd0, 0xd2, 0x12, 0x2c, 0xec, 0x2e, 0xf7, 0xdd, 0x16, 0x0c, 0x5d, 0xad,
  0x03, 0xe5, 0x42, 0x33, 0x40, 0xec, 0xed, 0xc3, 0xe2, 0x39, 0xf4, 0xaf,
  0xf1, 0x05, 0x43, 0x07, 0xc2, 0xd1, 0x2e, 0x28, 0x37, 0xfe, 0x22, 0x26,
  0x00, 0x08, 0xc1, 0xd3, 0xf0, 0xf7, 0xea, 0x14, 0x48, 0xd8, 0xe7, 0xe5,
  0xd6, 0xf4, 0xf7, 0x2f, 0xc2, 0x03, 0xe6, 0xe5, 0xca, 0xed, 0x42, 0x07,
  0x32, 0x2a, 0x22, 0x24, 0xb9, 0xd5, 0xce, 0xd6, 0x23, 0x39, 0x1b, 0x47,
  0x43, 0xe5, 0x34, 0xd5, 0x37, 0xf9, 0xec, 0xca, 0x36, 0x44, 0x21, 0x11,
  0x0a, 0xd0, 0xbd, 0x46, 0xc9, 0xff, 0x28, 0xec, 0x3f, 0x1e, 0xf6, 0x05,
  0xd5, 0xc9, 0xf1, 0xc6, 0x1e, 0x2a, 0xfa, 0x04, 0x0a, 0xdd, 0x27, 0xba,
  0x50, 0xe6, 0xdc, 0xd7, 0xf0, 0x14, 0xd0, 0xec, 0xfa, 0x59, 0xc3, 0xf9,
  0xc4, 0x31, 0xd2, 0x2c, 0xf2, 0x23, 0x05, 0x07, 0xdc, 0x42, 0x07, 0xdc,
  0x06, 0xf4, 0x1a, 0x09, 0xe8, 0xf2, 0x1a, 0xea, 0xf2, 0x00, 0xc7, 0x2e,
  0x16, 0x24, 0xe7, 0x26, 0xfe, 0x1c, 0xf6, 0xd4, 0x1f, 0x08, 0xcb, 0xcd,
  0x2d, 0xc0, 0x34, 0x0d, 0x15, 0x00, 0x81, 0xd6, 0xbd, 0xf9, 0xf4, 0x09,
  0x23, 0xe3, 0x26, 0xd4, 0x0d, 0xd0, 0x00, 0x17, 0xe5, 0xc1, 0xc7, 0x09,
  0x29, 0x0d, 0x22, 0xfb, 0xfc, 0x38, 0xc9, 0x47, 0x0e, 0x20, 0xe3, 0x2f,
  0xbf, 0x28, 0x44, 0x27, 0x3b, 0x1f, 0x44, 0xb4, 0x22, 0xfe, 0x00, 0xc5,
  0x13, 0x42, 0xde, 0x0a, 0x0a, 0x01, 0xcb, 0x09, 0x0e, 0x2e, 0xcc, 0x0b,
  0x37, 0xe1, 0xfc, 0x25, 0x22, 0xf8, 0xd2, 0xe5, 0x97, 0xea, 0xd7, 0xfc,
  0xfe, 0xf6, 0xfb, 0xdf, 0xbd, 0x1a, 0x0a, 0x01, 0xbf, 0xcd, 0xfb, 0x1b,
  0x2b, 0xce, 0x1e, 0xe4, 0x1c, 0x21, 0xf6, 0x15, 0xd1, 0x2a, 0x42, 0x10,
  0x33, 0x36, 0xea, 0x28, 0x13, 0xe0, 0x12, 0x28, 0x28, 0xc0, 0xfc, 0xb3,
  0x3e, 0x32, 0xc2, 0xbd, 0xe8, 0x19, 0xdb, 0xc9, 0x1f, 0xfc, 0x28, 0xe8,
  0x3e, 0x0b, 0x13, 0x3d, 0xfa, 0xb9, 0xc9, 0xf2, 0xe2, 0xed, 0x26, 0x13,
  0x37, 0xea, 0x4c, 0x25, 0xfa, 0x2a, 0x00, 0x58, 0x11, 0xc4, 0x21, 0x1f,
  0x43, 0x0c, 0xc6, 0xc7, 0xeb, 0xe5, 0xe9, 0x00, 0xce, 0x13, 0xd2, 0xf7,
  0xe6, 0xca, 0x34, 0x40, 0xde, 0x33, 0xfa, 0xc2, 0xe2, 0xf7, 0x4f, 0x2a,
  0x2c, 0x25, 0x07, 0xde, 0xd8, 0x0c, 0x24, 0xf9, 0x1b, 0x16, 0xd1, 0x07,
  0x1b, 0xe5, 0x1a, 0xe9, 0xba, 0xf4, 0x33, 0xce, 0xec, 0x3b, 0x0d, 0xda,
  0xda, 0x0f, 0x2e, 0x2c, 0x1c, 0xc8, 0x4e, 0xec, 0xc2, 0xd1, 0xff, 0x36,
  0xff, 0xcd, 0xcd, 0xeb, 0x1d, 0x81, 0xec, 0xf6, 0x05, 0xd9, 0x46, 0x3d,
  0x21, 0x06, 0xec, 0x02, 0x37, 0xcc, 0xd1, 0x93, 0xc0, 0xff, 0x26, 0x40,
  0x05, 0x1a, 0x2f, 0x34, 0xda, 0xd0, 0x06, 0xf2, 0xa4, 0xef, 0xda, 0x1b,
  0xf6, 0xe9, 0xdf, 0xe0, 0xc3, 0x20, 0xb9, 0x16, 0xff, 0x2a, 0x3d, 0x37,
  0x28, 0xc3, 0x01, 0x23, 0xdc, 0xd8, 0xd6, 0xef, 0xf4, 0x1b, 0xd5, 0x08,
  0x23, 0x47, 0x12, 0xf6, 0x0c, 0xb7, 0xc5, 0x3e, 0x09, 0x2b, 0x20, 0x0a,
  0x43, 0x01, 0x92, 0xdc, 0xcd, 0xdf, 0xb8, 0x18, 0x37, 0x43, 0x31, 0x05,
  0xe4, 0xe3, 0xdc, 0x2b, 0x40, 0xd9, 0xe2, 0x22, 0xea, 0xd8, 0x44, 0xe9,
  0xfb, 0x43, 0x3d, 0xd6, 0xf4, 0xc3, 0x3f, 0xdc, 0xc9, 0x12, 0xe9, 0xd1,
  0x29, 0xe8, 0xe2, 0x18, 0x25, 0xed, 0xcc, 0x15, 0xe5, 0x22, 0xfa, 0xc1,
  0x0d, 0xe2, 0x82, 0x2a, 0xf2, 0x27, 0x43, 0xc5, 0x34, 0x35, 0xf4, 0x0f,
  0xb4, 0xfd, 0x08, 0x06, 0xe1, 0x04, 0x05, 0xd5, 0x07, 0xd8, 0x25, 0x1c,
  0xd3, 0x3f, 0xe9, 0x28, 0x42, 0x1d, 0x14, 0x29, 0xc4, 0xd4, 0xb2, 0x28,
  0x31, 0xca, 0xe0, 0x81, 0x04, 0x27, 0xeb, 0x2d, 0x04, 0xfc, 0xdb, 0xed,
  0xf1, 0xe1, 0xdf, 0xb2, 0x24, 0x4a, 0xd7, 0xce, 0xc9, 0xe4, 0x21, 0x38,
  0xe8, 0x29, 0x11, 0x21, 0xb6, 0x15, 0x13, 0x0e, 0xe1, 0xfa, 0xe0, 0xfe,
  0x31, 0x22, 0x0f, 0x11, 0xf6, 0xcb, 0x30, 0x2f, 0xf0, 0x10, 0x18, 0xe1,
  0x39, 0x23, 0x02, 0xf6, 0x04, 0x15, 0x36, 0x26, 0xe9, 0x1e, 0x02, 0x04,
  0xe4, 0xcc, 0x1e, 0x09, 0x11, 0xf9, 0xf6, 0x44, 0xd3, 0xdb, 0x20, 0x0f,
  0xd1, 0xcd, 0xda, 0xf9, 0x08, 0xff, 0xf8, 0xf5, 0x06, 0xcd, 0xf0, 0x06,
  0x16, 0xff, 0x06, 0x44, 0x3f, 0xe3, 0xf3, 0x1b, 0xdc, 0xcc, 0x14, 0x1f,
  0x15, 0x24, 0x18, 0xed, 0xf1, 0x16, 0x19, 0xd6, 0xd0, 0xf8, 0xe4, 0x2f,
  0x08, 0x03, 0xfb, 0x3a, 0xe6, 0xdc, 0xf7, 0xdc, 0x1d, 0xef, 0x24, 0x22,
  0x29, 0x3c, 0x28, 0x2c, 0x03, 0x16, 0x3f, 0x22, 0x2b, 0xd8, 0x11, 0x32,
  0x18, 0x0f, 0xdb, 0xd8, 0xfc, 0x03, 0xc8, 0x35, 0xc7, 0xe9, 0xe5, 0x35,
  0xcf, 0x21, 0x11, 0xc0, 0xca, 0x17, 0x18, 0x29, 0x09, 0x15, 0xd1, 0xec,
  0xd4, 0xe1, 0x44, 0xd0, 0x2a, 0x02, 0x20, 0x0b, 0x34, 0x20, 0x28, 0x04,
  0xe7, 0x09, 0xd7, 0xb8, 0xb2, 0xed, 0xcb, 0x29, 0xd6, 0x19, 0xef, 0xe6,
  0x17, 0xe7, 0xdc, 0xe0, 0xfe, 0xc0, 0xe9, 0x14, 0x33, 0xf3, 0xf5, 0xc2,
  0xf6, 0xfb, 0xbf, 0xef, 0xf0, 0xd9, 0x23, 0x3e, 0x05, 0x2f, 0xd1, 0x1d,
  0xdc, 0x25, 0xc3, 0xf3, 0xcc, 0x07, 0xc6, 0x2d, 0xcb, 0x1f, 0xfe, 0x07,
  0x15, 0xe1, 0x27, 0xfa, 0x14, 0xf6, 0xd5, 0x0b, 0xf8, 0xcf, 0xcc, 0xea,
  0xea, 0xe5, 0x30, 0x1d, 0x35, 0x0d, 0xc7, 0x0b, 0xf9, 0x16, 0x2f, 0x3c,
  0xde, 0x29, 0x2b, 0x27, 0xe3, 0xde, 0x3c, 0xde, 0xdd, 0x1e, 0x04, 0xc5,
  0xe9, 0xfc, 0x50, 0x10, 0x1f, 0xc8, 0xe6, 0x33, 0xfa, 0x47, 0xad, 0x4c,
  0xe1, 0x99, 0xaa, 0x24, 0x07, 0x23, 0xdd, 0x35, 0x3a, 0x9d, 0xaa, 0xb6,
  0xea, 0x07, 0x0e, 0xe9, 0xb4, 0x37, 0x1b, 0xe3, 0xde, 0x96, 0x5f, 0x55,
  0xad, 0x5d, 0x00, 0x43, 0xa0, 0xbe, 0xe7, 0xab, 0x0c, 0x99, 0x5c, 0x40,
  0x27, 0x54, 0x45, 0x5e, 0xdb, 0x0e, 0x2a, 0x30, 0xb4, 0x99, 0x9c, 0xc8,
  0x50, 0x61, 0xd5, 0x46, 0x1b, 0x1e, 0x67, 0x5a, 0xa0, 0x9e, 0xa2, 0x07,
  0x95, 0x18, 0x06, 0xa3, 0xd6, 0xa4, 0xf8, 0xd0, 0x00, 0x3a, 0x38, 0x35,
  0xc0, 0x54, 0x5f, 0x3b, 0xf2, 0x3f, 0x54, 0xf6, 0x0d, 0xec, 0xc1, 0xb4,
  0x99, 0x0b, 0x35, 0xc4, 0x33, 0xcd, 0xac, 0xc8, 0xcd, 0x27, 0x2b, 0x1b,
  0x3e, 0xd3, 0xd6, 0x00, 0x24, 0xb8, 0xa3, 0xdd, 0x9a, 0x94, 0x41, 0xa3,
  0xa8, 0x0a, 0x40, 0x35, 0xa7, 0x28, 0xae, 0xb1, 0xec, 0x1b, 0x63, 0x9b,
  0xcf, 0xb9, 0x2c, 0x93, 0xc0, 0xbe, 0xce, 0x09, 0x59, 0x07, 0x21, 0x0f,
  0x99, 0x20, 0xd6, 0x53, 0xc5, 0x96, 0xff, 0xf5, 0xcd, 0x2f, 0x0f, 0x04,
  0x25, 0xd2, 0x99, 0x2d, 0x96, 0x15, 0x7f, 0xc9, 0x3d, 0xe1, 0xc1, 0x2d,
  0xc7, 0x23, 0x4e, 0xfd, 0x5f, 0x50, 0xf0, 0x52, 0x91, 0x22, 0x4d, 0x49,
  0xb6, 0x33, 0xb1, 0x19, 0x92, 0x3e, 0x4b, 0x5f, 0x1f, 0xde, 0xee, 0x9f,
  0x55, 0x9a, 0x9a, 0x9e, 0xf7, 0x37, 0x2a, 0x15, 0x46, 0x51, 0xc1, 0x53,
  0x64, 0x41, 0xa8, 0x20, 0x50, 0xc5, 0x08, 0xd8, 0xd4, 0x08, 0x04, 0xd9,
  0xc6, 0x3c, 0xe8, 0xd7, 0x1a, 0xae, 0xe1, 0x1c, 0xe5, 0x0c, 0x01, 0x16,
  0xc2, 0xe3, 0x01, 0xc8, 0xea, 0x2f, 0x39, 0x1f, 0xaa, 0x3c, 0x31, 0x01,
  0xcd, 0xdd, 0x61, 0xdf, 0xfc, 0xc5, 0xea, 0xc3, 0x44, 0x34, 0xd6, 0xaf,
  0xe9, 0x63, 0x1a, 0xe1, 0xda, 0x9a, 0x50, 0xbc, 0xcd, 0xab, 0xed, 0xc1,
  0xd8, 0xa2, 0x93, 0x05, 0xd5, 0xc7, 0xc4, 0x3a, 0xc1, 0xe7, 0xf1, 0xbc,
  0x50, 0xe9, 0xfc, 0x1e, 0xf1, 0x26, 0xa4, 0xd6, 0x18, 0x38, 0xb9, 0x38,
  0x66, 0x61, 0x3c, 0xe1, 0xbc, 0xfd, 0xb4, 0xfb, 0xef, 0x1a, 0xce, 0xdd,
  0xde, 0xd4, 0x1a, 0xd6, 0xfa, 0xfe, 0x1e, 0xd4, 0x1a, 0xb0, 0x2a, 0x29,
  0x2e, 0xf5, 0x06, 0xf0, 0x22, 0x22, 0xe9, 0xda, 0xad, 0x00, 0x74, 0x16,
  0x0b, 0xd6, 0xfc, 0x37, 0xf3, 0x48, 0xd2, 0xb8, 0xc3, 0x28, 0xe9, 0x00,
  0xf0, 0x04, 0x2d, 0xca, 0xc5, 0xe3, 0x1a, 0x38, 0x27, 0x00, 0x08, 0xf0,
  0xde, 0xf0, 0xed, 0x0a, 0x32, 0x0a, 0x41, 0x20, 0x2f, 0x38, 0x2f, 0xef,
  0xde, 0x3c, 0xe0, 0xf0, 0x21, 0xfe, 0x1c, 0xe9, 0xc4, 0x1f, 0x37, 0xd3,
  0xfc, 0x07, 0x1e, 0xf0, 0x01, 0xef, 0x05, 0x08, 0x14, 0xc3, 0x17, 0xd8,
  0xc7, 0xe0, 0xba, 0xc3, 0x24, 0x0a, 0xf6, 0x81, 0x13, 0x20, 0xf8, 0xeb,
  0xf9, 0xdc, 0x21, 0x2d, 0xed, 0xfc, 0x26, 0x0e, 0x13, 0x1c, 0xc5, 0xe2,
  0x0d, 0x2d, 0x20, 0xcd, 0x18, 0xcf, 0x03, 0xdd, 0x28, 0xfe, 0xf1, 0x35,
  0x18, 0xc9, 0x2d, 0xce, 0xed, 0x15, 0xf2, 0x16, 0x2d, 0x3a, 0x15, 0x30,
  0x1f, 0x20, 0x35, 0xdd, 0xf8, 0xf9, 0xe6, 0x20, 0xf3, 0x1a, 0x18, 0x15,
  0x33, 0x22, 0x1d, 0xda, 0xcf, 0x39, 0xe0, 0xc8, 0xe1, 0xde, 0x19, 0x30,
  0xd3, 0x46, 0xd8, 0x12, 0x23, 0xe3, 0xc5, 0x34, 0xee, 0xf0, 0xf5, 0x08,
  0x0e, 0xd9, 0x15, 0xba, 0x1d, 0xec, 0x20, 0x2f, 0xe5, 0xdc, 0xd4, 0x12,
  0xfa, 0xc9, 0x33, 0x30, 0xd1, 0x30, 0xde, 0xdf, 0x01, 0x0e, 0xfc, 0x3e,
  0xfa, 0x23, 0xe2, 0xec, 0xf2, 0xf9, 0x2a, 0x16, 0xec, 0xc7, 0xd8, 0x1e,
  0xe2, 0xf5, 0x2d, 0x14, 0x3a, 0xf9, 0x22, 0x0c, 0xf4, 0x00, 0xb8, 0x1b,
  0x01, 0xfb, 0x2f, 0xe0, 0xbf, 0xf5, 0x09, 0x33, 0x30, 0x2c, 0x12, 0xd8,
  0x16, 0xe2, 0xf7, 0xda, 0x2f, 0xfc, 0xd6, 0xd0, 0x0d, 0x25, 0xe5, 0x34,
  0x34, 0x25, 0x34, 0xf0, 0xdd, 0xeb, 0x25, 0xf2, 0x20, 0x14, 0xf7, 0x40,
  0xe9, 0xf4, 0x3f, 0x15, 0x09, 0x56, 0x18, 0x33, 0xcb, 0xf3, 0x03, 0xc5,
  0x0c, 0xdb, 0xd2, 0xb4, 0xc8, 0x29, 0x20, 0x29, 0x39, 0x1f, 0x23, 0x30,
  0xf4, 0x19, 0x03, 0x0a, 0xe2, 0x17, 0xee, 0xf8, 0x1d, 0xec, 0x30, 0xea,
  0x15, 0x11, 0x1a, 0xef, 0x02, 0x0a, 0xc7, 0xf8, 0xc5, 0x0e, 0xfd, 0x3e,
  0x06, 0xe8, 0xff, 0x32, 0xd4, 0x37, 0x0f, 0x32, 0xf1, 0x39, 0x08, 0x13,
  0x1f, 0xd1, 0xc7, 0xed, 0xac, 0x20, 0xed, 0xfb, 0xe0, 0xd9, 0x1d, 0x1d,
  0x2f, 0x29, 0x1b, 0xcd, 0x22, 0x0f, 0xc1, 0x01, 0xd5, 0xb6, 0xf0, 0xd2,
  0xfc, 0xff, 0x2a, 0xe6, 0x18, 0x11, 0x08, 0xd9, 0xdf, 0x31, 0xdc, 0x0a,
  0xff, 0xd3, 0x09, 0xed, 0xf8, 0x2c, 0xfc, 0x0a, 0xdc, 0x04, 0xe7, 0xfa,
  0xea, 0x32, 0xdc, 0x3a, 0xe2, 0xea, 0x00, 0x14, 0xd2, 0x2e, 0x00, 0x32,
  0x4c, 0xd2, 0xe6, 0xfe, 0x0e, 0xfb, 0xf4, 0x18, 0xbc, 0xd1, 0xc0, 0x0d,
  0x22, 0xf1, 0x07, 0xd6, 0x05, 0x2e, 0xe4, 0xe7, 0xd6, 0x00, 0xed, 0xec,
  0xfe, 0xde, 0x22, 0x23, 0xd2, 0x20, 0xfc, 0xf1, 0xed, 0x03, 0xf9, 0xf1,
  0xd4, 0xfe, 0xe4, 0x27, 0x9e, 0x0f, 0x28, 0xd4, 0xfe, 0xef, 0xde, 0x23,
  0xe9, 0xf2, 0xd9, 0xec, 0x02, 0xdb, 0x13, 0xc7, 0x0e, 0xeb, 0x02, 0xef,
  0xb9, 0xe3, 0xee, 0x25, 0x1b, 0x12, 0x45, 0xbc, 0xd2, 0xe9, 0xf5, 0x3d,
  0xd5, 0xce, 0xf0, 0x27, 0x37, 0x24, 0xcd, 0xdf, 0xff, 0xfb, 0xd3, 0xdd,
  0x2b, 0xf3, 0x26, 0x53, 0x1b, 0xf3, 0x0e, 0xfd, 0xe4, 0xce, 0x08, 0x2f,
  0x28, 0xe4, 0x7f, 0x17, 0xf6, 0xbe, 0xf4, 0xf2, 0x1d, 0xc7, 0xe2, 0xf2,
  0xc2, 0x1b, 0x00, 0x06, 0x07, 0x17, 0xfe, 0x14, 0xfd, 0x08, 0x25, 0x27,
  0x0b, 0x25, 0xd0, 0xb8, 0xbb, 0xff, 0x15, 0x0a, 0x01, 0xe8, 0xab, 0x28,
  0x15, 0xe8, 0xea, 0xd8, 0xc0, 0xdd, 0xd0, 0x27, 0x0e, 0xc8, 0xf0, 0x1a,
  0x1b, 0xeb, 0x32, 0x36, 0x01, 0xf9, 0x09, 0x05, 0xbc, 0x02, 0x06, 0x3c,
  0x34, 0x22, 0xdd, 0x0e, 0xa9, 0x26, 0x41, 0x17, 0xdd, 0xf2, 0x01, 0x3d,
  0x05, 0x28, 0x27, 0xf7, 0x36, 0xd2, 0x1e, 0xed, 0x1c, 0x16, 0x03, 0xe1,
  0x2c, 0xff, 0x15, 0x26, 0x33, 0xfc, 0x2c, 0x2d, 0xcd, 0xd9, 0x07, 0x0b,
  0xd2, 0x24, 0xf5, 0xf3, 0x23, 0x19, 0x38, 0x33, 0x07, 0xf6, 0x0e, 0x19,
  0xf2, 0xf7, 0x13, 0xf9, 0xd3, 0x29, 0x07, 0xf1, 0x3b, 0xe6, 0xd8, 0xfe,
  0xfc, 0xce, 0x19, 0x06, 0x06, 0xd4, 0xd3, 0xdd, 0x05, 0x20, 0xf0, 0xe5,
  0xed, 0x0d, 0x00, 0xf4, 0x24, 0x0d, 0x02, 0x21, 0xe5, 0xe8, 0x23, 0xfa,
  0x0d, 0x12, 0x34, 0xd6, 0xe1, 0xef, 0xd7, 0xcb, 0xda, 0x00, 0x23, 0x06,
  0xf3, 0x18, 0x16, 0x12, 0xe6, 0xe8, 0xd7, 0x21, 0x1b, 0x12, 0x25, 0x12,
  0xf2, 0xfa, 0x2c, 0x1c, 0xf3, 0x0f, 0xe9, 0xe2, 0x0d, 0xe3, 0x12, 0x1e,
  0x2c, 0xff, 0x2b, 0x20, 0xe2, 0xe3, 0xdf, 0xd9, 0xfb, 0xf2, 0xf2, 0xd8,
  0x7f, 0xf2, 0x19, 0xec, 0x05, 0x05, 0xdd, 0x11, 0x18, 0xef, 0xe2, 0xe0,
  0x0f, 0xd4, 0xda, 0xfd, 0xe3, 0xeb, 0x02, 0xed, 0x21, 0xe0, 0x04, 0x29,
  0xcb, 0xf0, 0x19, 0xce, 0xde, 0xdd, 0xed, 0xec, 0x1e, 0xf5, 0x17, 0xe6,
  0xe8, 0xfb, 0x1b, 0x22, 0xfb, 0x04, 0x31, 0xe6, 0xe7, 0xe0, 0x1e, 0xee,
  0x1a, 0x1e, 0xfb, 0xf1, 0x05, 0xf0, 0x12, 0x26, 0x24, 0xd3, 0x27, 0xfc,
  0xf6, 0xfb, 0x05, 0x29, 0x27, 0x28, 0x1b, 0xe6, 0xe4, 0xf9, 0xeb, 0x0b,
  0xf6, 0xeb, 0x2d, 0xd8, 0x25, 0xe6, 0x28, 0x22, 0xfa, 0x13, 0x25, 0xf6,
  0x26, 0xfe, 0xea, 0x2a, 0x1f, 0x04, 0xe0, 0x18, 0x1d, 0xfb, 0xee, 0xd6,
  0xdb, 0x21, 0xfe, 0xf6, 0x00, 0x0e, 0x14, 0x26, 0xda, 0xeb, 0xfa, 0x0b,
  0x0c, 0x16, 0xd0, 0x01, 0xd4, 0xe7, 0xea, 0xea, 0xfe, 0xce, 0xd4, 0xfa,
  0xf8, 0xe7, 0x0a, 0x0a, 0x0f, 0xe2, 0x0a, 0xe1, 0x2b, 0xc9, 0xfd, 0xd5,
  0xd9, 0xed, 0xe5, 0x32, 0x0e, 0xed, 0x07, 0x34, 0xe0, 0x06, 0x22, 0xf9,
  0x06, 0x24, 0x26, 0x3f, 0x2a, 0x08, 0xec, 0x05, 0x27, 0x32, 0x17, 0xfb,
  0x20, 0x1c, 0xfc, 0xf1, 0x10, 0xe3, 0x27, 0x0e, 0x02, 0xdd, 0x18, 0x11,
  0x01, 0x09, 0x09, 0xdc, 0x11, 0xdf, 0xf2, 0x1f, 0x27, 0xe3, 0xf0, 0x3c,
  0x12, 0x02, 0xe5, 0x07, 0xe0, 0xe2, 0x30, 0xc6, 0x01, 0xfd, 0xfc, 0xf8,
  0xdc, 0xf4, 0xea, 0xe0, 0xe4, 0xdf, 0xf3, 0xf8, 0x14, 0xf5, 0xc1, 0xea,
  0x07, 0xcf, 0x10, 0xcb, 0x2c, 0xc9, 0xdd, 0x09, 0x3a, 0x23, 0xfe, 0x24,
  0xf5, 0x19, 0x2a, 0xf0, 0x0b, 0xd6, 0x17, 0xdf, 0x2f, 0x29, 0x16, 0xec,
  0x20, 0x32, 0x23, 0x5c, 0xdf, 0xeb, 0x14, 0xc9, 0xe9, 0x40, 0x22, 0x0c,
  0x26, 0x37, 0xe3, 0x16, 0x44, 0xe9, 0xcf, 0x3c, 0xf9, 0x02, 0x17, 0x12,
  0x1f, 0x11, 0xee, 0x21, 0xd6, 0x19, 0x23, 0xe4, 0x2c, 0xe3, 0xf6, 0x00,
  0xb8, 0xec, 0x05, 0xf4, 0x23, 0x1f, 0xc2, 0x1b, 0xe3, 0x35, 0xca, 0x11,
  0xe8, 0xed, 0xe6, 0xcf, 0x33, 0xd8, 0x11, 0x10, 0xd8, 0xec, 0xe1, 0xf6,
  0xfb, 0x0c, 0x6f, 0x23, 0x0d, 0x2b, 0xe6, 0xfd, 0x11, 0x3d, 0xff, 0x2c,
  0xd9, 0xc9, 0x11, 0x3a, 0xcc, 0x3f, 0x2c, 0xdd, 0xee, 0x0c, 0xe8, 0x3f,
  0xdf, 0xde, 0x33, 0x37, 0xe3, 0x1f, 0xcd, 0x34, 0x0b, 0xdc, 0x09, 0xc8,
  0xcd, 0x21, 0x26, 0xfa, 0xfb, 0xfb, 0x2e, 0x48, 0xe9, 0xe9, 0x05, 0x1d,
  0x27, 0xd4, 0x0e, 0x15, 0x2f, 0x1c, 0xd3, 0x1b, 0x27, 0x24, 0x2f, 0x33,
  0x38, 0xd4, 0x09, 0x0b, 0xfb, 0x1a, 0xc8, 0x02, 0x15, 0x03, 0x37, 0x13,
  0xaa, 0xf2, 0x05, 0xed, 0x41, 0xfc, 0xe6, 0xc7, 0x28, 0x21, 0x1d, 0xd3,
  0xde, 0x0d, 0x2a, 0xe8, 0xf0, 0xd6, 0x39, 0xdb, 0x03, 0xc0, 0xe4, 0xd4,
  0xa2, 0xe2, 0x16, 0x33, 0xf6, 0x25, 0x10, 0x26, 0xcc, 0xd8, 0x34, 0x10,
  0xae, 0xf0, 0x28, 0xd5, 0x11, 0xeb, 0xe3, 0xf5, 0x01, 0xdc, 0x35, 0xfe,
  0xe7, 0xe5, 0xeb, 0x25, 0xe1, 0x24, 0x18, 0x1b, 0x20, 0xd9, 0xd1, 0xe6,
  0xe3, 0x26, 0xf0, 0xf0, 0xdc, 0xeb, 0x26, 0x0e, 0xe0, 0x13, 0x31, 0xe5,
  0x15, 0xd9, 0x0d, 0x35, 0xc6, 0xe5, 0x27, 0x0e, 0xe1, 0xf0, 0x37, 0xc8,
  0x13, 0xc9, 0x0c, 0xd7, 0xd7, 0x3e, 0xf4, 0x2c, 0x0b, 0xfa, 0xe8, 0xbc,
  0x1d, 0xf1, 0xfa, 0xf9, 0xff, 0xb7, 0xeb, 0x21, 0x1f, 0xd7, 0x05, 0x0c,
  0x11, 0x1d, 0x22, 0x22, 0xf9, 0x33, 0xce, 0x16, 0x01, 0xe8, 0xc9, 0x05,
  0x7f, 0xbe, 0x21, 0xe7, 0x07, 0x08, 0x1f, 0x57, 0x76, 0xb8, 0xdc, 0xdb,
  0xe6, 0xcb, 0xce, 0x25, 0xe9, 0xb8, 0xf5, 0xd8, 0xee, 0xc2, 0x65, 0x56,
  0xc3, 0xdb, 0x23, 0xbd, 0x0f, 0x31, 0xd7, 0x1a, 0x52, 0xff, 0x1c, 0xd9,
  0xec, 0x3f, 0x2e, 0x00, 0xe4, 0x16, 0xfc, 0xe9, 0x0e, 0xd2, 0xd4, 0x0d,
  0xcd, 0x20, 0x31, 0x51, 0x1f, 0x28, 0x51, 0x52, 0x0a, 0x3b, 0x1b, 0x46,
  0x55, 0xe7, 0x51, 0x4a, 0xcf, 0xf8, 0xf3, 0xff, 0x44, 0x19, 0x4f, 0x7f,
  0x13, 0x3c, 0x18, 0x3a, 0x45, 0x2e, 0x03, 0xec, 0xdf, 0xc3, 0xe8, 0xd8,
  0xd3, 0xec, 0x3c, 0xff, 0xc9, 0xbe, 0x16, 0xee, 0x2f, 0xef, 0xfb, 0xf1,
  0xe9, 0xe2, 0x5b, 0x11, 0x13, 0x3c, 0xcc, 0x61, 0x25, 0x21, 0xe5, 0x0f,
  0x16, 0xdb, 0x12, 0xf9, 0x3a, 0x2e, 0xc2, 0x14, 0x08, 0xd1, 0x2f, 0x43,
  0x4a, 0xc1, 0xef, 0xe7, 0x17, 0xee, 0xf9, 0xe6, 0xf4, 0xbf, 0x04, 0xd7,
  0xda, 0xe7, 0xe8, 0xd0, 0xc8, 0x01, 0xc2, 0x28, 0xdc, 0xcf, 0x45, 0xbd,
  0xc3, 0x3c, 0x19, 0xe9, 0x0f, 0x25, 0x3e, 0x45, 0x48, 0xfb, 0xfc, 0x34,
  0xb4, 0x16, 0xd3, 0xf3, 0x36, 0x05, 0x1d, 0xd6, 0x2f, 0xf7, 0xb5, 0x11,
  0x52, 0xb7, 0x12, 0x1b, 0xe4, 0xd9, 0x2f, 0xc9, 0x0e, 0x1b, 0x15, 0xff,
  0xb3, 0x19, 0x2d, 0xbf, 0x26, 0x37, 0x3b, 0x17, 0x2a, 0x07, 0xd0, 0x1e,
  0xb7, 0xfb, 0x3d, 0xeb, 0x39, 0x2c, 0x4b, 0x23, 0x42, 0x01, 0xab, 0x38,
  0x3b, 0xb4, 0xc5, 0xd8, 0x3d, 0x23, 0xec, 0xff, 0x01, 0x0a, 0x2a, 0xd6,
  0x0f, 0x33, 0xdb, 0x14, 0x07, 0xd4, 0x1f, 0x42, 0xb9, 0xd9, 0x6a, 0xfe,
  0x0e, 0x1e, 0x1d, 0x16, 0xd5, 0xb0, 0xe9, 0xc1, 0x14, 0x14, 0x34, 0xcf,
  0x41, 0x3d, 0xd9, 0xca, 0xe6, 0xc3, 0x29, 0x2e, 0x0a, 0xfa, 0x0f, 0xf3,
  0x00, 0x0e, 0xee, 0xcf, 0x4d, 0xd5, 0xdc, 0xe7, 0xe7, 0x1f, 0x07, 0xd9,
  0x20, 0x0e, 0x25, 0x1f, 0xeb, 0x31, 0x52, 0xb8, 0x18, 0x45, 0xce, 0x01,
  0xbf, 0xe5, 0x18, 0x20, 0xee, 0xf8, 0x39, 0xf9, 0xe8, 0x3f, 0x00, 0xf0,
  0xd7, 0x3b, 0xc9, 0x3a, 0xe8, 0xe8, 0x12, 0x25, 0x05, 0xdd, 0xeb, 0xd1,
  0xf1, 0x29, 0x26, 0x2b, 0x1e, 0x00, 0x07, 0xc6, 0xe7, 0x09, 0xe5, 0xf0,
  0xce, 0xe0, 0x40, 0x58, 0x1b, 0x32, 0xd1, 0x1d, 0xfe, 0xf2, 0xe5, 0xfa,
  0xfa, 0xdc, 0xce, 0x5d, 0xea, 0xd8, 0x14, 0x2a, 0xd5, 0xcd, 0xd8, 0x05,
  0xd3, 0xca, 0xbf, 0xd6, 0x2a, 0xe2, 0xe2, 0xe2, 0x0d, 0xce, 0x01, 0x0e,
  0x05, 0x15, 0xd8, 0xf8, 0xff, 0xff, 0x36, 0xf5, 0xcb, 0xeb, 0xea, 0x36,
  0x15, 0xf3, 0x2d, 0x0f, 0x06, 0x01, 0x28, 0xd4, 0xe4, 0xd3, 0x01, 0xf2,
  0x11, 0xee, 0xf3, 0xef, 0x25, 0x3e, 0x09, 0x39, 0x02, 0xd4, 0xcb, 0x06,
  0xbe, 0x05, 0xf0, 0x30, 0x12, 0xda, 0xf9, 0x81, 0xf2, 0xe1, 0xe3, 0xd8,
  0xfe, 0xc7, 0xe4, 0x37, 0x39, 0x28, 0x17, 0x22, 0x12, 0xeb, 0xf7, 0x03,
  0x30, 0x0d, 0xf3, 0x00, 0xf3, 0xd0, 0xd4, 0x10, 0x07, 0xe9, 0xca, 0x1c,
  0x33, 0xf0, 0x07, 0xc2, 0xd7, 0xca, 0x04, 0xfd, 0x19, 0x31, 0x03, 0xf6,
  0xee, 0xd2, 0xf1, 0x11, 0x03, 0xe1, 0xf1, 0xdf, 0xe5, 0x04, 0xc4, 0xc8,
  0x3d, 0xf0, 0x07, 0x0e, 0xbf, 0x23, 0x5f, 0xcf, 0xfe, 0xe0, 0x20, 0x02,
  0x36, 0xf1, 0xfb, 0xe9, 0xf7, 0x18, 0x17, 0xe9, 0x33, 0x20, 0xd2, 0x02,
  0xb0, 0x11, 0x21, 0xf3, 0xe6, 0xe6, 0x15, 0xcb, 0x12, 0x2e, 0x03, 0xe7,
  0x07, 0xcb, 0x8c, 0x05, 0x21, 0x16, 0xd6, 0x2c, 0xe1, 0xe5, 0xec, 0xea,
  0x20, 0x08, 0x28, 0xe6, 0xf3, 0xfe, 0x07, 0xf5, 0xd9, 0x12, 0x40, 0x43,
  0xf2, 0x1a, 0xd9, 0x20, 0x2d, 0xd1, 0x14, 0x00, 0xe3, 0x13, 0xec, 0x31,
  0xfc, 0x2a, 0x0f, 0xf6, 0x21, 0x29, 0x14, 0xd2, 0xef, 0x12, 0xe6, 0xf8,
  0xdf, 0xd0, 0x08, 0xc5, 0x50, 0xed, 0xd6, 0xf0, 0xc4, 0xcd, 0xe4, 0xea,
  0xdd, 0xe6, 0x10, 0x20, 0xd9, 0xfe, 0x35, 0xdd, 0x32, 0xf4, 0x08, 0x53,
  0x49, 0x09, 0xc3, 0xdc, 0xf6, 0x0c, 0xed, 0x0e, 0x2f, 0x35, 0x22, 0xf3,
  0x04, 0x16, 0xf8, 0xe3, 0x07, 0x01, 0x31, 0x03, 0x0f, 0x19, 0x18, 0xf3,
  0x1c, 0xc1, 0xbc, 0x27, 0x00, 0x28, 0xd2, 0xff, 0xf7, 0x35, 0xfb, 0xeb,
  0x47, 0xba, 0x1e, 0x10, 0xe4, 0xce, 0x1d, 0x17, 0xdf, 0xf8, 0x0b, 0x4e,
  0x2a, 0xde, 0x35, 0xb3, 0xe0, 0xe5, 0x24, 0xcf, 0x18, 0x1f, 0xc8, 0xe3,
  0x03, 0x32, 0xe0, 0xee, 0x1a, 0xe6, 0x43, 0xa2, 0xc3, 0x57, 0xcb, 0x0f,
  0xfb, 0xd6, 0x2c, 0x00, 0xf2, 0x47, 0xf4, 0xfb, 0xe4, 0xc1, 0x32, 0x4b,
  0x5a, 0x25, 0xd1, 0xfa, 0xd9, 0xcb, 0x6f, 0xca, 0x01, 0x1f, 0xb2, 0xaf,
  0xe5, 0xdb, 0xd7, 0x0a, 0x33, 0xd5, 0x19, 0xe3, 0x35, 0xc6, 0x08, 0x31,
  0x15, 0xf6, 0xe0, 0x1b, 0x24, 0x30, 0x33, 0xa5, 0xf9, 0x03, 0xbf, 0xed,
  0x0a, 0xf6, 0x22, 0xfc, 0xd6, 0xe2, 0xca, 0x4f, 0x15, 0x1e, 0xc8, 0x81,
  0xfe, 0x82, 0xfe, 0x0e, 0x42, 0xeb, 0xb0, 0x0a, 0x08, 0xcf, 0xef, 0xb3,
  0xca, 0x9a, 0xd9, 0xe5, 0x06, 0x2d, 0xae, 0xe5, 0x46, 0x37, 0xb3, 0x12,
  0x46, 0xf8, 0xce, 0x0c, 0xd9, 0xde, 0xe9, 0xda, 0xfe, 0xe5, 0xf3, 0xcb,
  0x1e, 0xfe, 0x2e, 0x18, 0xeb, 0xd4, 0xc9, 0x3c, 0xf2, 0xfe, 0x06, 0xcb,
  0x17, 0x20, 0xe3, 0xce, 0xf3, 0xfb, 0x02, 0xe3, 0x14, 0x06, 0x0b, 0x2f,
  0x10, 0x17, 0x01, 0x08, 0x3b, 0x37, 0xe0, 0xef, 0xc8, 0xe3, 0x0f, 0x2b,
  0x13, 0xf1, 0x0f, 0xe0, 0x12, 0x1b, 0x1e, 0xd5, 0x11, 0xda, 0xfa, 0x1e,
  0xd8, 0xdf, 0x35, 0x13, 0xfb, 0xd3, 0xd5, 0x64, 0xf6, 0xfd, 0xe3, 0xf8,
  0x1e, 0xa7, 0xeb, 0xe9, 0x28, 0xfc, 0x3a, 0x1f, 0xe8, 0x2c, 0x44, 0xf7,
  0x2f, 0xf9, 0x3a, 0xb0, 0xb4, 0x0a, 0xd8, 0xe1, 0x1b, 0xec, 0x15, 0x07,
  0x40, 0x42, 0x00, 0xce, 0x1f, 0xb6, 0x2a, 0xd5, 0x16, 0x00, 0x00, 0x38,
  0xcb, 0xe6, 0xb2, 0x2a, 0xe9, 0x01, 0xc4, 0xfb, 0xd6, 0x37, 0xd1, 0xf9,
  0xfd, 0xf2, 0x0b, 0x20, 0xdd, 0x17, 0x24, 0xef, 0xf1, 0x14, 0xd7, 0x0d,
  0x17, 0xeb, 0xce, 0x07, 0xdc, 0xce, 0x24, 0xe7, 0xc2, 0x0c, 0xfb, 0xdf,
  0x1b, 0x0b, 0xc8, 0xf0, 0xf5, 0x25, 0xd9, 0x03, 0x24, 0x27, 0xbf, 0x38,
  0x14, 0x25, 0xdb, 0xe0, 0x1c, 0xf0, 0x2e, 0xe3, 0xe0, 0x1a, 0x01, 0xaf,
  0x0b, 0xc9, 0x3a, 0xd4, 0xc8, 0x0e, 0xe2, 0xec, 0xf1, 0x4c, 0x1f, 0xe5,
  0xd6, 0xac, 0xbf, 0xdf, 0x18, 0xd3, 0x07, 0xd2, 0xe9, 0x1e, 0x3f, 0x3e,
  0xcb, 0xdb, 0xfd, 0x81, 0xd2, 0x38, 0xd9, 0x23, 0xe1, 0x19, 0x42, 0x04,
  0x43, 0xca, 0xe2, 0xe1, 0xd2, 0x3d, 0xc8, 0xa2, 0xcf, 0xc9, 0x0b, 0x3a,
  0x1f, 0x0a, 0x2e, 0xcb, 0xe8, 0xed, 0xe4, 0x19, 0xd7, 0x20, 0xe9, 0xcb,
  0x16, 0xec, 0x03, 0xdf, 0x2e, 0xbf, 0xda, 0xee, 0x22, 0x1d, 0x25, 0x19,
  0x37, 0x3b, 0xce, 0x2d, 0x0d, 0xcd, 0x48, 0x06, 0x10, 0xe9, 0xfa, 0xe9,
  0x0c, 0x19, 0x34, 0xc0, 0xdf, 0xdd, 0xbc, 0xf4, 0xc1, 0xc7, 0x3e, 0x27,
  0xea, 0xec, 0x3d, 0x09, 0x0b, 0x32, 0xe9, 0x25, 0x0d, 0x3d, 0x0d, 0xcf,
  0x09, 0x21, 0xcf, 0x0c, 0x19, 0xc9, 0xf4, 0x2e, 0x42, 0xdc, 0xf2, 0x3e,
  0xd4, 0x47, 0x37, 0xca, 0xfd, 0xef, 0xfe, 0xf0, 0xbc, 0xef, 0x02, 0x20,
  0xec, 0x16, 0xc0, 0x2e, 0xcc, 0xf6, 0x02, 0xef, 0x24, 0x23, 0x1c, 0x21,
  0x10, 0x47, 0xf2, 0x2d, 0xf9, 0x43, 0xdd, 0xdf, 0xeb, 0x30, 0xd8, 0x33,
  0x34, 0x64, 0xee, 0xe9, 0x2e, 0x16, 0x23, 0x16, 0x3e, 0xfd, 0x28, 0x2b,
  0xce, 0x3e, 0x0b, 0xd1, 0xf9, 0x3e, 0x1b, 0x41, 0x01, 0xe1, 0xee, 0xfd,
  0x21, 0x38, 0x02, 0x19, 0xd3, 0xd7, 0x1d, 0xd1, 0xf3, 0x27, 0x14, 0x19,
  0x36, 0x21, 0xe5, 0x0a, 0x25, 0xba, 0x35, 0x17, 0xdc, 0xd9, 0xde, 0x3e,
  0x20, 0x19, 0xfb, 0x11, 0x29, 0x1a, 0xfc, 0x3c, 0xc5, 0x3c, 0xdd, 0x45,
  0xbf, 0x0b, 0xfb, 0x0e, 0xff, 0xdd, 0xf5, 0x09, 0x24, 0x34, 0xcc, 0x10,
  0x15, 0x16, 0x49, 0x0a, 0xe0, 0xcb, 0xe0, 0xc6, 0xca, 0x22, 0x07, 0xfd,
  0xef, 0xda, 0xc9, 0xc1, 0x17, 0xc4, 0x50, 0xd8, 0x2d, 0xca, 0xfc, 0xc4,
  0x42, 0xd6, 0x19, 0xc7, 0xe8, 0xdb, 0xf8, 0xde, 0xda, 0xf4, 0x05, 0x38,
  0xf9, 0x3d, 0x3a, 0x29, 0xcc, 0xfe, 0x39, 0x40, 0x1f, 0x04, 0xcc, 0x34,
  0x4b, 0xb8, 0xf1, 0xe4, 0x17, 0x08, 0xef, 0x24, 0xc8, 0x25, 0xb5, 0x3d,
  0x32, 0x27, 0x4f, 0x35, 0x3a, 0x69, 0x2f, 0x13, 0xe1, 0x35, 0x15, 0xc6,
  0x27, 0x8e, 0x2a, 0x14, 0xd0, 0xea, 0x2d, 0xcf, 0x45, 0xd9, 0x9b, 0xd0,
  0x15, 0x36, 0xb5, 0x1b, 0x41, 0x03, 0x34, 0x1f, 0x0d, 0x17, 0xc8, 0x44,
  0xda, 0xdd, 0xf0, 0x09, 0x1b, 0xe4, 0xcc, 0xf7, 0xb3, 0x1e, 0x2c, 0xd3,
  0x58, 0x3d, 0xc5, 0xdf, 0x13, 0xbe, 0x20, 0xf0, 0xdc, 0x28, 0x4a, 0xa0,
  0x6a, 0xc4, 0xd5, 0xd1, 0xca, 0xf4, 0x32, 0x01, 0x2a, 0x0a, 0x16, 0xbd,
  0x24, 0x1f, 0x44, 0x14, 0x16, 0x30, 0xc1, 0xf8, 0x3d, 0xb2, 0xf4, 0xbb,
  0x5d, 0x20, 0xf0, 0xc7, 0xd8, 0xd0, 0x02, 0x13, 0x22, 0xdd, 0x41, 0x4c,
  0x38, 0x5e, 0xff, 0xf7, 0xe2, 0xf1, 0x1d, 0xf1, 0xb7, 0x59, 0x3e, 0xe7,
  0x48, 0x12, 0xdb, 0x30, 0x3a, 0x53, 0xdd, 0x00, 0xf1, 0xc7, 0xa8, 0xc4,
  0xb4, 0x51, 0x3e, 0x6c, 0xea, 0x0a, 0xf5, 0x17, 0x0f, 0x2a, 0xd9, 0x1a,
  0xf2, 0xc7, 0xb6, 0x34, 0x0c, 0x4c, 0x14, 0xf0, 0xda, 0xc8, 0x20, 0x1c,
  0x27, 0x1b, 0xcb, 0x12, 0x1e, 0xc9, 0x5a, 0xe1, 0x12, 0xbb, 0x69, 0x35,
  0xd7, 0x15, 0x2f, 0x23, 0xd8, 0xc4, 0xcf, 0x2a, 0x2c, 0x3f, 0xd4, 0xe5,
  0x07, 0xd0, 0x3b, 0x16, 0x2b, 0xcd, 0x2e, 0xe2, 0xcf, 0xd1, 0x13, 0xc4,
  0x2c, 0xbb, 0x00, 0xb7, 0x28, 0xe0, 0x07, 0x45, 0x3b, 0x0a, 0xe0, 0x5c,
  0x29, 0xfb, 0x4f, 0xc2, 0xef, 0xc2, 0x57, 0xeb, 0xc2, 0x61, 0x1c, 0x18,
  0x08, 0xe4, 0x25, 0x07, 0x03, 0xe2, 0xe4, 0xb8, 0xb1, 0x38, 0x81, 0xbf,
  0xbb, 0xe9, 0x09, 0x34, 0xfd, 0xc9, 0x25, 0xe6, 0x50, 0xc2, 0x0e, 0x46,
  0x24, 0x05, 0xed, 0xcb, 0xf0, 0x05, 0x16, 0x4a, 0x53, 0x26, 0x31, 0x1e,
  0xf8, 0x3f, 0xfc, 0xc5, 0xf3, 0xda, 0x5f, 0x01, 0xf0, 0xc5, 0x34, 0x00,
  0x3a, 0x42, 0x4a, 0x2f, 0x5a, 0x2e, 0xd7, 0xc0, 0x1c, 0xca, 0x23, 0x0d,
  0xfe, 0x1b, 0x2a, 0x74, 0x12, 0x11, 0x25, 0xb4, 0xfe, 0x0f, 0x42, 0x16,
  0x27, 0x28, 0x69, 0x41, 0x35, 0xba, 0x2b, 0x2a, 0xea, 0xd6, 0x07, 0x48,
  0xe9, 0x08, 0x25, 0x3e, 0xf2, 0xed, 0xc8, 0x39, 0xff, 0xdd, 0xee, 0xec,
  0xf4, 0x06, 0x06, 0x4c, 0x31, 0x01, 0x00, 0x21, 0x30, 0x0f, 0xbe, 0x05,
  0xdb, 0x13, 0x2e, 0xf5, 0x1b, 0x20, 0x2b, 0xd6, 0xdb, 0xf6, 0xeb, 0x13,
  0x04, 0x3b, 0x0b, 0x20, 0xf3, 0xf7, 0x13, 0x20, 0xf9, 0x17, 0xef, 0xfe,
  0xd6, 0xd0, 0xfb, 0xe9, 0x50, 0xf1, 0xf2, 0x1c, 0xc6, 0xf7, 0xeb, 0xd2,
  0xf4, 0x2e, 0x12, 0xe3, 0xeb, 0xf9, 0xde, 0xf6, 0xca, 0x1d, 0x29, 0xe1,
  0x1e, 0xfb, 0x13, 0x3a, 0xcc, 0x05, 0x10, 0xec, 0x01, 0xd6, 0x1c, 0xc9,
  0xfe, 0xec, 0xdd, 0xde, 0x0a, 0xf1, 0xfa, 0x1b, 0x10, 0xfc, 0xc9, 0xf0,
  0x35, 0x2e, 0x31, 0xf2, 0xcc, 0x03, 0x1a, 0x08, 0xef, 0xf9, 0xe0, 0x29,
  0x03, 0xf6, 0xd1, 0x3d, 0x2c, 0xc9, 0xed, 0x05, 0x03, 0xcb, 0x3f, 0xd7,
  0xdd, 0xe2, 0x24, 0xe6, 0x20, 0xe2, 0x30, 0x06, 0xe3, 0x03, 0xcb, 0xd2,
  0x16, 0xd7, 0x05, 0xf1, 0x02, 0xde, 0xe1, 0x33, 0x20, 0xc6, 0xba, 0x38,
  0xef, 0xe0, 0xd0, 0xfc, 0xe2, 0xd7, 0xde, 0xfd, 0xc6, 0xe7, 0x26, 0xc9,
  0x3e, 0x12, 0x16, 0x17, 0xd8, 0xf1, 0x0c, 0xc4, 0x17, 0x09, 0x17, 0xbd,
  0x1a, 0x3a, 0x20, 0xf4, 0x31, 0xb9, 0xfc, 0xe9, 0xc6, 0x2a, 0x18, 0x13,
  0x10, 0xee, 0x28, 0x22, 0xd9, 0x14, 0xef, 0xe4, 0xd0, 0x2f, 0xc9, 0x0b,
  0xbd, 0x27, 0xe8, 0x21, 0x1b, 0xc8, 0x05, 0xc8, 0xad, 0x13, 0xf0, 0xfe,
  0xc9, 0xd8, 0xc8, 0xef, 0x0d, 0x30, 0x1c, 0x04, 0xe9, 0x11, 0xe5, 0xd2,
  0x1d, 0xd8, 0x16, 0x28, 0x0e, 0xbc, 0xe3, 0xf4, 0xef, 0x28, 0x16, 0xed,
  0x2d, 0xe4, 0x0a, 0xe9, 0x2c, 0xaf, 0xc1, 0xff, 0x21, 0xb9, 0x24, 0xd8,
  0xfc, 0xe2, 0xd3, 0x3a, 0xd3, 0xe1, 0x39, 0x00, 0xc6, 0x05, 0xc4, 0x7f,
  0x5c, 0xf8, 0x2a, 0x28, 0x34, 0xe2, 0xed, 0x21, 0x09, 0x05, 0x01, 0xf8,
  0x0d, 0xec, 0xce, 0x0a, 0x2b, 0xd4, 0xdb, 0x38, 0xef, 0x35, 0x11, 0x2c,
  0xff, 0xe0, 0x0a, 0xf9, 0x12, 0xf9, 0xf6, 0x27, 0x36, 0xef, 0xff, 0xff,
  0x04, 0x00, 0x00, 0x00, 0x40, 0x00, 0x00, 0x00, 0xa5, 0xff, 0xff, 0xff,
  0xcf, 0xff, 0xff, 0xff, 0x36, 0x00, 0x00, 0x00, 0xe7, 0xff, 0xff, 0xff,
  0xfe, 0xff, 0xff, 0xff, 0xdf, 0xff, 0xff, 0xff, 0x0a, 0x00, 0x00, 0x00,
  0xef, 0xff, 0xff, 0xff, 0x02, 0x00, 0x00, 0x00, 0x24, 0x00, 0x00, 0x00,
  0x12, 0x00, 0x00, 0x00, 0x01, 0x00, 0x00, 0x00, 0x06, 0x00, 0x00, 0x00,
  0xe6, 0xff, 0xff, 0xff, 0x25, 0x00, 0x00, 0x00, 0x0a, 0x00, 0x00, 0x00,
  0x82, 0xef, 0xff, 0xff, 0x04, 0x00, 0x00, 0x00, 0x00, 0x0f, 0x00, 0x00,
  0x45, 0xfe, 0x38, 0xc4, 0x18, 0x16, 0xe4, 0x2e, 0xf2, 0xf4, 0xd6, 0x11,
  0x2c, 0xc6, 0xf4, 0x09, 0x37, 0xdd, 0xc8, 0xb5, 0xc3, 0x3b, 0x43, 0xbf,
  0xed, 0x09, 0x30, 0x41, 0xc9, 0x0b, 0x43, 0x06, 0x14, 0xdf, 0x10, 0x00,
  0xeb, 0xe5, 0xc8, 0xbd, 0xcf, 0xbf, 0xe4, 0xca, 0xdb, 0x2b, 0xb8, 0x39,
  0xea, 0x32, 0x41, 0xb6, 0xf3, 0x07, 0x42, 0x16, 0xd3, 0xce, 0x3e, 0x16,
  0xe4, 0xe7, 0x40, 0x39, 0xef, 0xdf, 0x07, 0x0a, 0x3b, 0xdd, 0x02, 0xf2,
  0xb8, 0xce, 0xbd, 0x32, 0xf4, 0xd3, 0xc9, 0xbd, 0x31, 0xe7, 0xeb, 0x38,
  0xcf, 0x01, 0x32, 0xee, 0x46, 0xfa, 0x35, 0xdb, 0xc5, 0xda, 0xc1, 0x21,
  0x40, 0x42, 0x07, 0x18, 0xc0, 0xcf, 0x31, 0xbb, 0xfa, 0xc4, 0x36, 0x42,
  0xc6, 0x2c, 0xd3, 0x47, 0xec, 0x29, 0x2a, 0x3c, 0xf9, 0xe0, 0xf5, 0xcc,
  0x11, 0x3c, 0xc4, 0x39, 0xf8, 0xfd, 0xbd, 0x1a, 0xd5, 0xd3, 0xe3, 0x43,
  0xdb, 0xda, 0x38, 0xe9, 0x0c, 0x1c, 0x45, 0x18, 0xfd, 0x43, 0x0d, 0x12,
  0x05, 0x4d, 0x0b, 0xbf, 0x05, 0x13, 0x34, 0x19, 0xc3, 0x40, 0xf2, 0xe5,
  0xd4, 0xed, 0xde, 0xf4, 0xc6, 0xbc, 0x08, 0x21, 0xc8, 0x2e, 0xda, 0x06,
  0x32, 0xd3, 0x08, 0x35, 0x31, 0x01, 0x28, 0xb8, 0xb8, 0xc1, 0x0b, 0xbf,
  0xf0, 0xb9, 0x3a, 0xe1, 0xbf, 0xcd, 0xba, 0x11, 0xbf, 0xc6, 0xc6, 0x2d,
  0xdd, 0x10, 0x12, 0x18, 0x37, 0x1d, 0x07, 0xc8, 0xee, 0xd7, 0xcf, 0xd5,
  0xff, 0xef, 0xe9, 0xda, 0xc6, 0xc0, 0x18, 0xbc, 0xe5, 0xe1, 0xc2, 0x32,
  0xbe, 0xed, 0x1a, 0xe0, 0x22, 0x34, 0x10, 0xf6, 0x27, 0xb8, 0x07, 0xfa,
  0x34, 0xd5, 0x08, 0xf8, 0xd5, 0x30, 0x2c, 0xe9, 0xff, 0x2e, 0x28, 0xf2,
  0xe6, 0x0e, 0x25, 0x05, 0xe4, 0xc5, 0x0c, 0xee, 0xf9, 0xe6, 0x16, 0x34,
  0x39, 0xd5, 0x17, 0xb7, 0xf3, 0xe1, 0xbd, 0x13, 0x3e, 0xbc, 0xe5, 0xbd,
  0x2a, 0x1a, 0x32, 0x1e, 0xbe, 0x33, 0xee, 0x31, 0x45, 0xd7, 0xc8, 0xd1,
  0xfd, 0xe8, 0x35, 0xf9, 0xdb, 0x09, 0x2a, 0xd6, 0x00, 0xd0, 0xf5, 0xc0,
  0x24, 0x22, 0xe5, 0x11, 0xe3, 0xd6, 0x13, 0x2f, 0xd6, 0x09, 0x31, 0xe3,
  0x0b, 0x1c, 0x23, 0x40, 0xf2, 0x10, 0xec, 0x22, 0xcf, 0xda, 0xd9, 0xd5,
  0x1a, 0xd2, 0xbd, 0x1e, 0xf1, 0xbd, 0x03, 0x3b, 0xca, 0xf0, 0xbf, 0xc3,
  0xfa, 0x39, 0xbe, 0xd2, 0xf0, 0xe0, 0xf6, 0xde, 0xde, 0x2e, 0x0b, 0xf7,
  0xc1, 0xd2, 0x37, 0x38, 0x23, 0xc9, 0x26, 0xbe, 0xdb, 0x2d, 0x1f, 0x2d,
  0xdc, 0xdf, 0xd7, 0x38, 0xee, 0xe3, 0x3a, 0x32, 0xbb, 0xeb, 0x0c, 0xed,
  0x42, 0xe1, 0xf6, 0x05, 0x38, 0xdc, 0xe3, 0xf0, 0xbb, 0xc5, 0x3a, 0xd2,
  0xdd, 0xf3, 0xdd, 0xec, 0xf7, 0x21, 0x32, 0xcd, 0xc7, 0xca, 0xd5, 0x2f,
  0xef, 0xc7, 0x20, 0x1c, 0x07, 0xe4, 0xc8, 0xcb, 0xfc, 0xfd, 0xc2, 0x29,
  0x29, 0xd1, 0xe9, 0x16, 0x05, 0x42, 0x1c, 0x0e, 0xfc, 0x0b, 0xcd, 0x1d,
  0xd8, 0x12, 0xba, 0xe5, 0xca, 0xf8, 0xd5, 0x16, 0x08, 0x3f, 0x41, 0xb6,
  0x1a, 0x15, 0x0c, 0x0e, 0x32, 0xfc, 0x3c, 0x16, 0x14, 0xf3, 0xbc, 0x16,
  0xf1, 0xe0, 0xcb, 0xc6, 0x1b, 0xf3, 0x2f, 0xe3, 0x44, 0xf7, 0xfa, 0x32,
  0xf0, 0xd5, 0x48, 0xec, 0xb5, 0xf8, 0x38, 0xb8, 0xe6, 0xc6, 0xcc, 0xe0,
  0xca, 0x39, 0xed, 0xe0, 0x25, 0xcd, 0xc7, 0xde, 0x2e, 0x32, 0xcc, 0xfb,
  0xf9, 0xe7, 0xf0, 0xd8, 0xef, 0x44, 0xe3, 0xd1, 0x11, 0x04, 0x38, 0xb9,
  0xd3, 0xd2, 0x3c, 0x43, 0x6c, 0xe2, 0x3a, 0xec, 0xf4, 0x21, 0xcc, 0xe4,
  0x12, 0xc7, 0x2e, 0x2d, 0xe6, 0xd2, 0xef, 0xf5, 0x33, 0x09, 0xe9, 0x27,
  0x15, 0xc8, 0x4d, 0xc3, 0xfe, 0xba, 0xf2, 0xd7, 0x00, 0xe9, 0x42, 0xde,
  0x59, 0x0b, 0xc3, 0x10, 0x3e, 0xe7, 0x33, 0xd6, 0x1b, 0x10, 0xc5, 0x47,
  0xb2, 0xc7, 0xfa, 0x10, 0xe1, 0xde, 0x39, 0xe1, 0xc9, 0x3a, 0xb2, 0xfb,
  0x37, 0xf1, 0xf0, 0x31, 0xe6, 0xcf, 0xe1, 0xdc, 0xe2, 0xf6, 0x25, 0xe6,
  0xf2, 0xcf, 0xd6, 0x3c, 0xb6, 0x35, 0xa1, 0xee, 0xd2, 0x06, 0x21, 0xb7,
  0x30, 0xd9, 0x52, 0xf0, 0x66, 0x29, 0x1a, 0x0f, 0x64, 0xd6, 0x34, 0x31,
  0x4e, 0xd8, 0x11, 0xc8, 0x29, 0xfe, 0xc1, 0x2e, 0x07, 0x12, 0x25, 0xaf,
  0xff, 0xfe, 0x35, 0x20, 0x47, 0xe2, 0x3a, 0xc5, 0x15, 0xdb, 0x45, 0xba,
  0x72, 0xff, 0xfa, 0xed, 0xc3, 0xee, 0xff, 0x4a, 0x2c, 0xc9, 0x32, 0xd9,
  0xd1, 0x28, 0x40, 0x45, 0xea, 0xdc, 0xe3, 0xf3, 0x59, 0xc6, 0x0e, 0xba,
  0xb4, 0x32, 0xf6, 0xcd, 0xf4, 0xdb, 0x1b, 0x30, 0x0f, 0xd7, 0xeb, 0x48,
  0x0f, 0xf0, 0x18, 0x47, 0x27, 0xe4, 0x46, 0x12, 0x04, 0xe5, 0x0f, 0x46,
  0xe5, 0x2f, 0x2c, 0x52, 0x3b, 0x43, 0x54, 0xc4, 0x48, 0x54, 0xc4, 0x40,
  0xba, 0xbf, 0xbf, 0xc4, 0x43, 0x40, 0x52, 0x0a, 0xde, 0x37, 0x11, 0x31,
  0x2b, 0x12, 0xc8, 0xe2, 0x43, 0x07, 0xf9, 0xbd, 0xd1, 0x4b, 0xed, 0x19,
  0xd9, 0x12, 0xfd, 0xcd, 0x3c, 0xc5, 0x05, 0xc3, 0xb8, 0xc6, 0x3a, 0xc3,
  0xf2, 0x05, 0x1b, 0x34, 0x7c, 0xd7, 0x24, 0xd5, 0xfe, 0xfe, 0xc2, 0xf9,
  0xd1, 0x13, 0x2a, 0x21, 0x37, 0xe7, 0x20, 0xc9, 0x02, 0xbb, 0x15, 0x15,
  0xe5, 0xe4, 0x09, 0x08, 0xdb, 0x36, 0xe8, 0x0a, 0xe4, 0x45, 0xc4, 0x10,
  0x2a, 0x3f, 0x17, 0x3a, 0xc4, 0x24, 0xd1, 0xda, 0x2f, 0xd2, 0x1a, 0xdc,
  0x44, 0xea, 0xf8, 0x10, 0x16, 0x20, 0xf3, 0xd9, 0xf8, 0xe5, 0xe9, 0x2a,
  0xac, 0xfa, 0xf7, 0xea, 0x37, 0x05, 0xfe, 0x06, 0xed, 0xae, 0xdd, 0x33,
  0xfd, 0x3e, 0xc4, 0x22, 0xcf, 0xdd, 0x49, 0xbe, 0x15, 0x3d, 0x1c, 0xe3,
  0x32, 0x05, 0x18, 0xff, 0x0f, 0xca, 0x2f, 0x31, 0xea, 0x12, 0x98, 0x04,
  0xfd, 0x28, 0xd1, 0xf4, 0x40, 0x40, 0x1d, 0xb9, 0xf0, 0x0f, 0x00, 0xc9,
  0xe8, 0x00, 0x40, 0xe4, 0x35, 0x3f, 0x0d, 0x44, 0xda, 0xda, 0x4d, 0x5b,
  0xce, 0x16, 0xf2, 0xb9, 0xf1, 0xe0, 0xe9, 0xe8, 0x09, 0x01, 0xe2, 0x19,
  0x0b, 0x1f, 0xd0, 0xc6, 0xd1, 0x36, 0xc2, 0x1c, 0xb7, 0xfd, 0x01, 0x46,
  0x64, 0x0d, 0xdd, 0xc9, 0xd6, 0x25, 0xee, 0xdb, 0x04, 0xc0, 0x2d, 0xd3,
  0xd4, 0x33, 0xe2, 0x28, 0x22, 0xcb, 0xd2, 0xfe, 0xf4, 0x45, 0xcb, 0xf9,
  0xb4, 0x25, 0xf2, 0x18, 0x3e, 0x39, 0x08, 0xc5, 0xf4, 0xc1, 0xb9, 0x32,
  0xf6, 0x1f, 0x59, 0x07, 0x10, 0xcb, 0xcf, 0x2e, 0x3d, 0xec, 0xc9, 0xfd,
  0x08, 0x29, 0xc6, 0xbc, 0xe3, 0x0b, 0x1b, 0x05, 0xb9, 0xb4, 0x3f, 0x39,
  0x2b, 0xbd, 0x2e, 0xee, 0xf1, 0x08, 0xef, 0xda, 0xd1, 0x06, 0xe4, 0xda,
  0x48, 0x1e, 0xd9, 0xf3, 0xc7, 0xe6, 0xf3, 0x35, 0xca, 0x3d, 0x18, 0x16,
  0x00, 0x09, 0xe6, 0xc5, 0xd2, 0xd4, 0x43, 0xbc, 0x1e, 0x2d, 0x3f, 0xee,
  0xd4, 0x28, 0xe0, 0xe6, 0xea, 0xff, 0x04, 0x0d, 0xfe, 0xa1, 0x2e, 0x65,
  0xfb, 0x1b, 0x29, 0x13, 0xe9, 0x26, 0x2c, 0x16, 0x47, 0xf9, 0x7d, 0x01,
  0xd9, 0xf1, 0x14, 0xec, 0x17, 0x0d, 0xb3, 0xec, 0xe1, 0x03, 0xd4, 0x0b,
  0x28, 0xf2, 0x13, 0x06, 0x2b, 0xd7, 0xcb, 0x29, 0xd7, 0x48, 0xdd, 0x2f,
  0xce, 0xe2, 0x39, 0xe2, 0xcc, 0x41, 0x0e, 0xe7, 0x18, 0x2a, 0xc0, 0x1e,
  0xcd, 0x42, 0xe1, 0x3c, 0x00, 0xc1, 0x33, 0x08, 0x2e, 0xdd, 0x08, 0xf1,
  0xd4, 0x06, 0xfc, 0xc7, 0xe0, 0x1b, 0x44, 0x04, 0x42, 0xe5, 0x22, 0xb9,
  0xb9, 0xcd, 0x0d, 0xe7, 0x25, 0x47, 0xc8, 0xb7, 0xce, 0xc9, 0x33, 0xed,
  0x46, 0xd0, 0x11, 0xe8, 0x36, 0x02, 0xea, 0xdf, 0xdc, 0x03, 0x31, 0xc6,
  0x3c, 0xf8, 0xea, 0xfa, 0x03, 0xcd, 0xbc, 0x20, 0x1d, 0x31, 0x26, 0xc3,
  0x0a, 0xdd, 0x2f, 0xd5, 0xe2, 0x20, 0xe6, 0xbd, 0xfd, 0xf7, 0x20, 0xbe,
  0xdc, 0x00, 0xf8, 0x1f, 0x2f, 0xfe, 0xd6, 0x25, 0x0a, 0xd6, 0x26, 0xdb,
  0xf6, 0x3b, 0x40, 0x11, 0xb8, 0xf3, 0xee, 0xf3, 0x24, 0xd9, 0xd8, 0xf2,
  0xc7, 0xec, 0xfa, 0xf8, 0xea, 0xe1, 0x0a, 0xf9, 0x13, 0x13, 0xbf, 0xdc,
  0xdc, 0x65, 0x25, 0xc3, 0xdf, 0x38, 0xdc, 0x23, 0x2c, 0x41, 0xf6, 0x0b,
  0xea, 0xd6, 0x2a, 0x02, 0x3e, 0x33, 0xd7, 0x2b, 0xf0, 0xd3, 0xdf, 0xc0,
  0x0c, 0xcf, 0x40, 0x34, 0x0d, 0x10, 0xac, 0xd5, 0xf1, 0x0f, 0x1d, 0xef,
  0xf0, 0xca, 0xec, 0x09, 0xca, 0x16, 0x24, 0x13, 0xec, 0xfe, 0xcc, 0xd4,
  0xf9, 0x27, 0xe6, 0x0b, 0x16, 0x36, 0xee, 0xff, 0xe5, 0xd6, 0x33, 0xd2,
  0x31, 0x1e, 0x01, 0x1d, 0x3c, 0x23, 0xe2, 0x40, 0x0b, 0xe9, 0x1f, 0x30,
  0xe9, 0x44, 0xce, 0x23, 0xd7, 0xc9, 0xa6, 0x3b, 0x45, 0xd1, 0xc4, 0x81,
  0xfb, 0x12, 0xf7, 0x0f, 0xd8, 0x16, 0xba, 0x28, 0x02, 0xc9, 0x02, 0xff,
  0x0f, 0x38, 0xfc, 0x10, 0xec, 0xd5, 0x0a, 0x40, 0xbd, 0x2d, 0x0a, 0xde,
  0x24, 0xe3, 0x39, 0xce, 0xc7, 0xde, 0xe2, 0x28, 0x17, 0x30, 0xd2, 0x16,
  0x26, 0x38, 0xe3, 0xc9, 0xbf, 0xc5, 0xb9, 0x28, 0x06, 0xf8, 0xdb, 0x30,
  0x1c, 0xea, 0xba, 0xe2, 0xe4, 0xcb, 0xff, 0x38, 0xcb, 0x2d, 0x29, 0xe3,
  0x1a, 0x21, 0xca, 0x35, 0x27, 0x2c, 0xf0, 0x12, 0x01, 0xc8, 0x16, 0xd3,
  0x35, 0xd1, 0xc2, 0xec, 0x39, 0xd8, 0xd5, 0x13, 0x36, 0x11, 0x0a, 0x12,
  0x0a, 0xe3, 0xf6, 0x35, 0x38, 0xca, 0xdb, 0x27, 0x14, 0xe8, 0xba, 0xd3,
  0x44, 0x17, 0x46, 0xc4, 0xf6, 0xc5, 0x13, 0x22, 0x10, 0xe4, 0x18, 0xcd,
  0xd8, 0x1d, 0xc5, 0x09, 0xbf, 0xc6, 0x2b, 0x10, 0x34, 0xda, 0x0a, 0xc9,
  0xdf, 0xb6, 0xea, 0x11, 0x20, 0xee, 0x44, 0xfa, 0x13, 0xcf, 0xf9, 0xf9,
  0xf6, 0xec, 0x26, 0x1d, 0xf9, 0xe2, 0x00, 0xf0, 0xb6, 0xcb, 0x10, 0x2a,
  0xef, 0x2e, 0x0e, 0xc5, 0xe3, 0x0f, 0xd2, 0xf4, 0x2d, 0xe3, 0x43, 0x45,
  0xcb, 0x19, 0x26, 0xd8, 0x2e, 0xc9, 0xbf, 0xe8, 0xc6, 0x14, 0x40, 0xbd,
  0xc1, 0x31, 0xcc, 0xfc, 0x0e, 0xc4, 0xe2, 0x11, 0xe1, 0xd8, 0x0e, 0x42,
  0xbb, 0xc3, 0xbe, 0x24, 0x45, 0xbf, 0x03, 0xba, 0xfe, 0x3e, 0x2a, 0xda,
  0xdd, 0x35, 0x0e, 0xd4, 0xf4, 0x30, 0x0a, 0x29, 0xc6, 0x26, 0x31, 0x48,
  0x3c, 0xfb, 0x43, 0xd8, 0xfa, 0xe6, 0x12, 0x2c, 0x23, 0xf2, 0x16, 0x3d,
  0x1b, 0x15, 0x42, 0xdb, 0x33, 0xd2, 0xef, 0x3b, 0xd8, 0xda, 0xdd, 0xc2,
  0xd1, 0x2b, 0x0d, 0x1c, 0xc5, 0x42, 0x02, 0xc2, 0x41, 0x43, 0xf2, 0xcb,
  0xf2, 0x3e, 0xe5, 0x1c, 0xfd, 0x3d, 0xf1, 0xf6, 0x3e, 0xb8, 0x29, 0x43,
  0x31, 0x19, 0xba, 0x15, 0xe9, 0x42, 0xef, 0x38, 0xe6, 0xc8, 0x41, 0x25,
  0x10, 0x26, 0xcb, 0x08, 0xbd, 0x09, 0x10, 0xee, 0x34, 0x31, 0x1e, 0x1d,
  0xbb, 0xbd, 0xc5, 0xb8, 0xfd, 0x2d, 0xe7, 0xfa, 0x31, 0xec, 0xd5, 0x13,
  0xeb, 0xfc, 0xc3, 0xb5, 0xbc, 0x43, 0xe8, 0xb5, 0x10, 0x3c, 0x27, 0xda,
  0x40, 0x41, 0xf4, 0xdf, 0x2f, 0xd7, 0x12, 0x02, 0xec, 0xef, 0xfb, 0xe0,
  0xcd, 0xcd, 0x14, 0x3e, 0xf0, 0xe9, 0x0d, 0x20, 0x45, 0xdc, 0x38, 0xc5,
  0xbb, 0xcb, 0x38, 0xb9, 0xb8, 0xc6, 0x13, 0xd3, 0xff, 0xf9, 0x31, 0x2e,
  0x0d, 0xf6, 0xc9, 0xc8, 0xfd, 0x11, 0xcc, 0xce, 0x17, 0xf7, 0x09, 0x1e,
  0x2f, 0x14, 0x33, 0xe9, 0xf0, 0xfd, 0xbb, 0x3a, 0xca, 0x36, 0xcd, 0x22,
  0xdb, 0x28, 0x42, 0x1b, 0xbd, 0x0d, 0xbc, 0x43, 0x06, 0x20, 0x23, 0x25,
  0x07, 0xe0, 0xbe, 0xd8, 0xc4, 0x28, 0x10, 0xe0, 0xf9, 0xfd, 0x37, 0xd8,
  0xe1, 0xbf, 0x40, 0x42, 0x2c, 0xf7, 0x02, 0x14, 0x3e, 0xf4, 0x1c, 0x3b,
  0xde, 0xfc, 0xc1, 0xdc, 0xea, 0xfa, 0x00, 0x3a, 0xd9, 0xc2, 0xc6, 0x10,
  0x34, 0xd3, 0x43, 0x33, 0xbc, 0x20, 0xf2, 0x18, 0xe5, 0x3e, 0x1b, 0xf0,
  0x28, 0x15, 0xf7, 0x10, 0x29, 0xba, 0xc1, 0x0c, 0xd2, 0x3f, 0x12, 0x0e,
  0xfe, 0x44, 0x42, 0x32, 0xfa, 0xba, 0xcd, 0x29, 0xd6, 0xef, 0x35, 0x2b,
  0x34, 0xe6, 0xcb, 0x13, 0xd7, 0xf0, 0x15, 0x1b, 0x0d, 0xd9, 0x27, 0xde,
  0xe2, 0xd4, 0xba, 0x31, 0x24, 0xe7, 0xd4, 0x18, 0x17, 0x34, 0xe3, 0xc8,
  0xf3, 0x06, 0xed, 0xbe, 0xdb, 0x0f, 0x24, 0xc7, 0x01, 0xd9, 0x34, 0xe9,
  0x00, 0x3d, 0xf4, 0xe8, 0xcd, 0x41, 0xde, 0x3f, 0x0e, 0xbe, 0x3f, 0x23,
  0x07, 0xc2, 0x28, 0xe2, 0xd5, 0x2e, 0xb8, 0x42, 0xf0, 0xc3, 0xe3, 0x2c,
  0x1f, 0x09, 0xe8, 0x23, 0xd3, 0xdd, 0xe7, 0x09, 0xe1, 0x33, 0x0b, 0x3b,
  0x2f, 0xe3, 0xfc, 0x30, 0x25, 0xf9, 0xfb, 0x0f, 0xbe, 0x35, 0xf8, 0xde,
  0xfa, 0xee, 0x45, 0xbc, 0x15, 0xc2, 0xfb, 0xe6, 0x02, 0xff, 0x10, 0x46,
  0x37, 0xf7, 0x1e, 0x14, 0x44, 0xf1, 0xdf, 0x0d, 0x37, 0x0d, 0xfd, 0xc0,
  0x08, 0xd1, 0xd3, 0x36, 0x39, 0xc0, 0xec, 0xb8, 0x40, 0x12, 0xe4, 0x0b,
  0xf2, 0x11, 0x21, 0x35, 0x18, 0xe7, 0x31, 0x1e, 0xbb, 0xc2, 0xbf, 0xc0,
  0xdb, 0xf2, 0x2f, 0xfb, 0x3c, 0xee, 0x23, 0xd1, 0xc9, 0x10, 0x13, 0x45,
  0xb9, 0xc5, 0x00, 0x1b, 0xf4, 0x02, 0x09, 0xbb, 0x36, 0x1a, 0x22, 0xdf,
  0x12, 0x39, 0xfe, 0x0b, 0x2e, 0xbf, 0x0e, 0xbb, 0xcf, 0xd3, 0xd5, 0x14,
  0x13, 0xd4, 0xbb, 0x09, 0x1b, 0xe4, 0xfe, 0x19, 0xfc, 0xc0, 0x32, 0x48,
  0x2e, 0x09, 0x11, 0x40, 0x11, 0xf4, 0x1f, 0xf5, 0x21, 0xe0, 0x53, 0xc1,
  0xf9, 0xee, 0x38, 0x1a, 0xfe, 0xfa, 0x39, 0x44, 0x11, 0xf2, 0x2c, 0xec,
  0x04, 0x0f, 0x6c, 0xeb, 0xe9, 0xed, 0x37, 0x11, 0x1d, 0x39, 0xca, 0xbb,
  0xc4, 0x3c, 0xc1, 0xe7, 0xc7, 0x37, 0xed, 0xdc, 0x35, 0xaf, 0xc4, 0x39,
  0x12, 0xe8, 0xbd, 0xce, 0x01, 0xec, 0xb9, 0xc3, 0x29, 0xea, 0xe3, 0xf4,
  0xde, 0x44, 0xdb, 0x24, 0x2d, 0x0e, 0x2f, 0x35, 0x33, 0x45, 0xdc, 0xeb,
  0x1e, 0xec, 0xdb, 0xe4, 0xfe, 0x0a, 0x26, 0xfc, 0x48, 0xea, 0x0a, 0x41,
  0xfb, 0x0e, 0xf5, 0xda, 0xcf, 0x3a, 0xb7, 0x10, 0xf0, 0xf2, 0x31, 0x0a,
  0xff, 0x29, 0xd8, 0x24, 0x37, 0xc4, 0xdd, 0xc3, 0x18, 0x1f, 0x01, 0x0e,
  0x28, 0xfd, 0xc1, 0x35, 0x3a, 0xb6, 0xd2, 0xfb, 0x32, 0xe7, 0xef, 0xc2,
  0xcc, 0x22, 0xc1, 0xb5, 0x32, 0xe9, 0x02, 0xeb, 0x23, 0xd1, 0x35, 0x30,
  0x1c, 0x15, 0xd5, 0xc7, 0x23, 0xc9, 0xc6, 0x2c, 0x1d, 0x13, 0xce, 0x19,
  0xf2, 0xe2, 0xeb, 0x29, 0x08, 0xe6, 0xca, 0xd2, 0x09, 0x3d, 0xf2, 0x40,
  0xcc, 0x07, 0xfe, 0x44, 0x45, 0x0e, 0x38, 0x1a, 0xf2, 0xf2, 0xf3, 0xe0,
  0x3c, 0xce, 0xc4, 0xfd, 0xfa, 0x07, 0x0f, 0x02, 0x15, 0x2f, 0xfd, 0x0e,
  0xf7, 0xfe, 0xd4, 0x27, 0xf7, 0x16, 0xee, 0x3d, 0xef, 0xfd, 0x28, 0x02,
  0x00, 0x23, 0xed, 0x35, 0x2f, 0x37, 0xe7, 0xcf, 0x35, 0xc1, 0x27, 0x38,
  0x2e, 0xc1, 0xf1, 0xcc, 0xc7, 0xcd, 0xde, 0x11, 0x48, 0xc9, 0x43, 0xd1,
  0xbd, 0xe4, 0xf0, 0xbf, 0xca, 0x1d, 0xec, 0xcc, 0xf6, 0x32, 0xf6, 0x29,
  0x0d, 0xf7, 0xbf, 0xb9, 0xff, 0x24, 0xc8, 0xe3, 0xe5, 0xe2, 0xd2, 0x0c,
  0x3a, 0xc2, 0x21, 0x44, 0x1d, 0xc8, 0xd3, 0x1f, 0x13, 0xcf, 0xd5, 0x25,
  0x3f, 0x1a, 0xce, 0x21, 0xbd, 0xcd, 0x1f, 0xd1, 0x40, 0x2c, 0x1d, 0xd9,
  0xd5, 0xf2, 0x3e, 0x44, 0xf3, 0x03, 0xe6, 0x20, 0x11, 0x30, 0x22, 0x23,
  0xc2, 0xdc, 0xb9, 0x30, 0xc6, 0x3a, 0x46, 0xcc, 0x11, 0x22, 0x19, 0x3f,
  0xb9, 0x3d, 0x43, 0xf3, 0x1b, 0xf1, 0xe7, 0x06, 0x0b, 0x1e, 0xfa, 0x3a,
  0xe0, 0xcc, 0xbb, 0xe2, 0xde, 0xc2, 0xe5, 0x33, 0x30, 0x04, 0xcc, 0xe3,
  0xfb, 0xdf, 0xfb, 0x0d, 0x2b, 0x13, 0xf2, 0xf9, 0x20, 0xc1, 0x0a, 0xf2,
  0x25, 0x0e, 0x3b, 0x2c, 0x40, 0xbe, 0x45, 0x48, 0x44, 0x10, 0xdb, 0x1b,
  0x23, 0x28, 0x04, 0x2c, 0x21, 0xb4, 0xc9, 0xb9, 0x43, 0xcf, 0x0f, 0x03,
  0xb5, 0x37, 0xee, 0x24, 0x4f, 0xd2, 0x04, 0x10, 0x4e, 0xbb, 0xff, 0xc8,
  0x23, 0x26, 0xf6, 0x2d, 0xe3, 0xf4, 0x09, 0x3d, 0xc0, 0x03, 0xc2, 0x05,
  0xd4, 0xc6, 0xc3, 0xe8, 0xfd, 0xfa, 0x2e, 0xf2, 0x33, 0xc3, 0xd6, 0x18,
  0x1a, 0x40, 0xc5, 0x10, 0xf1, 0xf8, 0xec, 0x18, 0xcd, 0xfb, 0xfe, 0xf6,
  0x09, 0x1c, 0xf2, 0xfe, 0xec, 0xe3, 0xf3, 0x44, 0x0b, 0x03, 0xc2, 0x29,
  0xc3, 0x23, 0xba, 0xfe, 0x4b, 0xdc, 0xb1, 0xde, 0x3c, 0xf5, 0x2e, 0x3c,
  0x25, 0x28, 0xe5, 0x08, 0xb0, 0x28, 0x3b, 0xda, 0x11, 0x04, 0x3f, 0xde,
  0x53, 0x33, 0xf1, 0x23, 0x47, 0xed, 0x44, 0x3b, 0x3e, 0x3b, 0x20, 0x0f,
  0xc4, 0x34, 0xf1, 0xd2, 0x1b, 0xf1, 0xc3, 0x06, 0xf7, 0x2b, 0x4a, 0xb7,
  0x23, 0x17, 0x2b, 0xe8, 0xe0, 0x06, 0xec, 0xfa, 0x29, 0x3b, 0xe1, 0x32,
  0xee, 0x3c, 0x30, 0x3b, 0x19, 0xeb, 0x02, 0x19, 0x25, 0x09, 0x44, 0x05,
  0xc9, 0xf2, 0xbc, 0x08, 0xd1, 0xef, 0x11, 0xe0, 0xaa, 0x22, 0x25, 0xf7,
  0x23, 0xab, 0x11, 0x0f, 0xc0, 0x43, 0x2e, 0xd4, 0x1c, 0x35, 0xd1, 0xe9,
  0xa8, 0xd6, 0xf2, 0x28, 0x37, 0xfa, 0xdf, 0x08, 0xc4, 0xce, 0xf1, 0xf6,
  0x38, 0xf9, 0x3d, 0x1f, 0xf7, 0x3e, 0xdc, 0x17, 0x0e, 0xda, 0x1c, 0x5d,
  0xbd, 0xec, 0xfb, 0x3c, 0x4b, 0xf5, 0x46, 0xd8, 0xfb, 0xdd, 0xf1, 0xc6,
  0xfc, 0xcd, 0x16, 0x45, 0xbc, 0x43, 0x06, 0x17, 0x24, 0x26, 0x03, 0x00,
  0x21, 0xd6, 0x00, 0x2b, 0xc0, 0xc0, 0x18, 0xbf, 0xda, 0x48, 0xc2, 0xe0,
  0xe0, 0x46, 0x2b, 0x19, 0x2b, 0x32, 0x11, 0xf6, 0x2b, 0xe5, 0x23, 0xf7,
  0x4c, 0xed, 0x29, 0xdf, 0xf8, 0x15, 0x17, 0xcf, 0xf1, 0xbd, 0x0c, 0xd1,
  0x34, 0xd6, 0xd1, 0x43, 0xfa, 0xc6, 0xd8, 0xec, 0xc2, 0xe4, 0xc6, 0xc6,
  0x1c, 0x16, 0xe7, 0x44, 0x0c, 0xd2, 0xe2, 0xbd, 0x17, 0xbd, 0xf0, 0x29,
  0x34, 0xce, 0x13, 0xdc, 0x3f, 0x32, 0xb7, 0xbc, 0x26, 0xdd, 0xe7, 0x45,
  0xea, 0x45, 0xd1, 0xf8, 0x3c, 0xdd, 0x2c, 0xfa, 0x05, 0x16, 0x3a, 0xed,
  0x0c, 0x26, 0x3a, 0x17, 0xec, 0x30, 0xcd, 0x00, 0x38, 0xd6, 0xca, 0x13,
  0x6c, 0xc3, 0xac, 0xc4, 0xc7, 0x43, 0xc5, 0x3f, 0xe5, 0x17, 0xf8, 0xc0,
  0xbe, 0x46, 0x14, 0xe6, 0xb6, 0x26, 0x18, 0x06, 0x40, 0xd7, 0x3c, 0xbf,
  0xf5, 0xf6, 0xd7, 0x49, 0xe7, 0x49, 0x19, 0xec, 0x3b, 0x23, 0x06, 0x39,
  0xe3, 0x21, 0x04, 0xf4, 0x52, 0xfc, 0xe6, 0x38, 0x11, 0x00, 0x0e, 0x14,
  0x4a, 0xf3, 0xd7, 0xfc, 0x2f, 0x1f, 0xfa, 0xe2, 0xc5, 0xf7, 0x13, 0x38,
  0x21, 0x3c, 0x3a, 0x3c, 0xdd, 0x34, 0x2d, 0xab, 0xea, 0xc2, 0xcd, 0x2a,
  0xf7, 0x01, 0xd1, 0x3b, 0xfe, 0xe3, 0x42, 0x3f, 0xd3, 0x0c, 0x27, 0x45,
  0x43, 0xd8, 0x2f, 0x23, 0xce, 0x25, 0xc3, 0xb3, 0x3e, 0xe7, 0xfb, 0x12,
  0xa4, 0x16, 0xef, 0x24, 0xe3, 0x2d, 0xbc, 0x19, 0xc0, 0xbf, 0xf8, 0xd9,
  0xce, 0x01, 0xc0, 0xe9, 0x04, 0x3d, 0x3b, 0xfa, 0x0e, 0xb6, 0xec, 0x25,
  0xf3, 0xfe, 0xc0, 0xda, 0xb4, 0x3c, 0x17, 0x3f, 0xf0, 0x3e, 0x1f, 0x09,
  0xe0, 0x17, 0xf7, 0xbb, 0xdb, 0x31, 0x3c, 0xeb, 0xdc, 0x41, 0xfa, 0xe4,
  0xbd, 0xd4, 0xb8, 0x11, 0x2a, 0xe6, 0xce, 0xbe, 0xc8, 0x2e, 0xe9, 0x40,
  0x1d, 0x21, 0x42, 0x26, 0xcb, 0xc0, 0xc8, 0xd0, 0x0d, 0xcb, 0xb9, 0x4e,
  0x07, 0xd6, 0xb4, 0xf4, 0xfa, 0xff, 0x1e, 0xf7, 0xc6, 0x09, 0x24, 0x22,
  0xc3, 0x00, 0x02, 0xf0, 0x49, 0xf4, 0x1c, 0xc4, 0xd6, 0x42, 0xcf, 0x09,
  0xd1, 0xe5, 0xf8, 0xc2, 0x47, 0xf9, 0xcc, 0xd3, 0xe3, 0x1b, 0xe5, 0xfb,
  0x42, 0x17, 0x23, 0x48, 0x1e, 0xc6, 0xc9, 0xf6, 0xbb, 0xe4, 0x2e, 0xc1,
  0xd1, 0xd4, 0x07, 0x17, 0x14, 0xd8, 0xb7, 0x03, 0x26, 0xfd, 0xbc, 0x3e,
  0x1a, 0xf9, 0xc3, 0xd1, 0x0b, 0xd0, 0xe9, 0x13, 0xf1, 0x41, 0x13, 0xfa,
  0xdb, 0xf5, 0x43, 0x22, 0x03, 0x17, 0x33, 0xf0, 0xc6, 0xed, 0xde, 0x26,
  0x46, 0x38, 0x0f, 0xfb, 0xf7, 0x38, 0xf8, 0x29, 0x34, 0x3b, 0xd8, 0x3b,
  0xda, 0xe4, 0x18, 0x14, 0x3b, 0xcb, 0x37, 0x1c, 0x0a, 0x45, 0x19, 0xc6,
  0x3d, 0x02, 0x24, 0xcc, 0x25, 0x0c, 0x31, 0xfc, 0xff, 0xf4, 0xca, 0xdd,
  0x22, 0xe1, 0xec, 0x21, 0xd2, 0x0f, 0xb6, 0xed, 0x13, 0x45, 0x0f, 0x28,
  0xbc, 0xe8, 0xc3, 0x3a, 0x21, 0xb9, 0xc3, 0x09, 0x0d, 0xc3, 0x25, 0xe1,
  0xc9, 0xf4, 0xb7, 0xf3, 0xf6, 0x25, 0x2f, 0xc5, 0x1c, 0xc2, 0xe1, 0xc7,
  0x14, 0xe9, 0xf7, 0x35, 0x38, 0xb8, 0x32, 0x30, 0xec, 0xc2, 0xde, 0xdb,
  0x19, 0xd4, 0xdc, 0xd1, 0x09, 0xfe, 0x11, 0x43, 0xc2, 0xda, 0xdd, 0xc4,
  0x3a, 0xf4, 0xbe, 0x44, 0x40, 0x30, 0x07, 0x1c, 0x00, 0x12, 0xd7, 0xfc,
  0xe4, 0xfc, 0x0c, 0xe5, 0x25, 0xd2, 0xd8, 0xc0, 0x12, 0xbc, 0xfb, 0x3a,
  0xe7, 0xe4, 0x1d, 0xd2, 0x3b, 0xe8, 0x03, 0xdb, 0x46, 0xff, 0x21, 0xdf,
  0x38, 0x23, 0x22, 0x3f, 0x08, 0xf5, 0x2c, 0x1f, 0x22, 0xdb, 0xf3, 0x18,
  0x3e, 0xcb, 0x11, 0x36, 0xca, 0xfe, 0x04, 0xf5, 0x2f, 0xcd, 0x1d, 0xfd,
  0x38, 0xf3, 0xd2, 0xc7, 0x17, 0xc8, 0xd4, 0xff, 0xe9, 0x45, 0xcb, 0xf2,
  0xe0, 0xcc, 0xdd, 0xe0, 0xf2, 0x18, 0xfd, 0xf4, 0xfe, 0x20, 0xca, 0xdf,
  0xd4, 0xe2, 0xf4, 0xfb, 0x04, 0x2e, 0x0b, 0xcc, 0xec, 0xf9, 0xbc, 0x21,
  0x37, 0x40, 0x18, 0xc1, 0x1e, 0x3a, 0x1b, 0xd4, 0xfc, 0xc6, 0xc4, 0x02,
  0x26, 0xf8, 0x09, 0x3c, 0x43, 0xeb, 0x24, 0x48, 0xe1, 0xfe, 0x3a, 0x1a,
  0x27, 0x4a, 0x19, 0xd3, 0x24, 0xd3, 0x07, 0x34, 0xe4, 0x27, 0xfc, 0x08,
  0x51, 0xfb, 0xc9, 0xa0, 0xf1, 0x3e, 0x21, 0x06, 0xf1, 0x31, 0xdb, 0xd6,
  0xfe, 0x18, 0xcf, 0xfa, 0xe0, 0xca, 0x5d, 0xc8, 0xd6, 0x2e, 0x46, 0x45,
  0x13, 0xdd, 0x41, 0x33, 0x68, 0xb6, 0xe4, 0xe7, 0xcb, 0x04, 0xd0, 0x2a,
  0xf7, 0x0b, 0xc5, 0x39, 0x2f, 0xf3, 0x04, 0xeb, 0xe3, 0x0e, 0xd5, 0xcf,
  0x25, 0x2d, 0x18, 0xce, 0x26, 0xf1, 0xc9, 0xdf, 0x27, 0x1b, 0x39, 0x42,
  0x67, 0x2b, 0xf9, 0x05, 0x05, 0xe1, 0xde, 0xd0, 0x1a, 0x15, 0x22, 0x23,
  0x42, 0x46, 0xc1, 0xee, 0xdd, 0xfa, 0x2e, 0xc3, 0x13, 0x3f, 0x4f, 0xc0,
  0x23, 0x22, 0xe2, 0xcf, 0x37, 0xc5, 0xd3, 0xdd, 0x19, 0xfa, 0x0a, 0x4c,
  0xf4, 0x34, 0x5d, 0x10, 0xfb, 0xe0, 0x26, 0x1d, 0x04, 0x30, 0x1d, 0xc7,
  0xd7, 0xbc, 0xe3, 0x41, 0x11, 0xf7, 0xec, 0x3e, 0xa9, 0xf8, 0xc0, 0x0a,
  0xa6, 0x09, 0x0c, 0xc8, 0x02, 0xf4, 0x24, 0x34, 0x2a, 0x2a, 0xd8, 0xd3,
  0x15, 0x23, 0xec, 0xd1, 0x1b, 0xe2, 0xd3, 0x05, 0xd9, 0xb9, 0xbe, 0x41,
  0xcc, 0x33, 0x1a, 0xd4, 0xdd, 0xff, 0xf1, 0xc9, 0x18, 0x02, 0x36, 0x1a,
  0xce, 0x01, 0x28, 0x10, 0x34, 0x20, 0x5f, 0x22, 0x1b, 0xc9, 0xbc, 0x12,
  0xdd, 0xdd, 0xfa, 0x37, 0xe2, 0x37, 0x2a, 0x28, 0x3b, 0xb1, 0x43, 0x2e,
  0x44, 0x11, 0x14, 0xfc, 0x14, 0x06, 0xdb, 0x20, 0x04, 0xc0, 0x19, 0xe2,
  0x3e, 0xea, 0xe2, 0xfb, 0x2c, 0x0f, 0xd5, 0xe1, 0xcb, 0x2e, 0x4c, 0xf9,
  0xfc, 0xe9, 0xef, 0x50, 0x35, 0xfa, 0x03, 0xe2, 0xf5, 0xdc, 0x20, 0x11,
  0xc3, 0x08, 0x1a, 0xca, 0x12, 0x13, 0x05, 0xfa, 0xc3, 0xfc, 0x21, 0xc9,
  0x19, 0x22, 0x1c, 0x00, 0x0b, 0x39, 0x07, 0x43, 0x24, 0xdd, 0x17, 0xd5,
  0xd8, 0x16, 0x20, 0x00, 0x43, 0xe6, 0xc5, 0x41, 0x1c, 0x47, 0xcd, 0xef,
  0xed, 0x17, 0x29, 0x37, 0x1d, 0x48, 0x2d, 0x47, 0x3f, 0xdc, 0xcb, 0xd0,
  0x0c, 0xf3, 0x18, 0xd4, 0x9c, 0xe4, 0xf4, 0xea, 0x37, 0xb6, 0x5a, 0x43,
  0x08, 0x3e, 0x07, 0x29, 0xe2, 0xe9, 0x4c, 0xfd, 0xbc, 0x29, 0xe5, 0x63,
  0x38, 0x11, 0xca, 0x4e, 0xbf, 0xfd, 0x08, 0x05, 0xd5, 0x05, 0xca, 0xe0,
  0x9a, 0xec, 0x1d, 0x34, 0x11, 0xac, 0xc0, 0xcb, 0x41, 0xd8, 0x39, 0x04,
  0x3c, 0x43, 0xc3, 0x0b, 0x39, 0xce, 0x4c, 0x0c, 0xbc, 0xec, 0xd3, 0xe5,
  0xd2, 0xd2, 0xd9, 0x19, 0xc1, 0x28, 0x2c, 0x3e, 0x31, 0x39, 0x14, 0x0a,
  0xc5, 0x45, 0xcc, 0xf2, 0xfc, 0x18, 0xf5, 0x0c, 0x2e, 0x47, 0x13, 0xc7,
  0xca, 0xfb, 0xba, 0xf5, 0x06, 0x15, 0x9c, 0x19, 0x51, 0x0e, 0x39, 0xe0,
  0x45, 0x22, 0xc1, 0x46, 0x34, 0xcb, 0x18, 0xd3, 0xd2, 0x32, 0xe0, 0xce,
  0x02, 0x45, 0xd6, 0xde, 0xdb, 0xf9, 0x2d, 0x03, 0xcb, 0x13, 0xff, 0xc1,
  0xed, 0x2f, 0x42, 0x45, 0x11, 0xd9, 0x3b, 0x31, 0xd2, 0xee, 0x15, 0xe3,
  0xbc, 0x15, 0x41, 0xe2, 0xfe, 0xea, 0xf0, 0xda, 0xe5, 0xfb, 0xe9, 0xb1,
  0xd9, 0xf8, 0x3c, 0xdc, 0xc1, 0xcb, 0x29, 0xc2, 0x02, 0x3f, 0xf3, 0xe3,
  0x1f, 0xf3, 0x0d, 0x0f, 0xe4, 0xc6, 0x3a, 0x0a, 0xd4, 0x16, 0x0b, 0xb3,
  0x21, 0xed, 0xe0, 0xb9, 0x40, 0xcf, 0xeb, 0xf5, 0xe3, 0xc5, 0x37, 0x24,
  0x09, 0xfd, 0x0b, 0x42, 0xf3, 0xe7, 0xc5, 0x28, 0x14, 0x3c, 0xc0, 0xf1,
  0x0f, 0xd0, 0x43, 0x1e, 0x47, 0x4b, 0x21, 0xef, 0x17, 0xfb, 0x39, 0xbd,
  0x30, 0xcb, 0x18, 0x34, 0x01, 0x3f, 0xb3, 0x01, 0xe4, 0xd9, 0x43, 0x19,
  0xe6, 0x43, 0xd0, 0xfe, 0x07, 0x2f, 0x0d, 0x39, 0x06, 0xe3, 0xdd, 0x0b,
  0x11, 0xee, 0x42, 0xda, 0xe1, 0xf7, 0xa8, 0x04, 0x05, 0xbc, 0x21, 0x06,
  0x43, 0xef, 0x36, 0x39, 0xec, 0x20, 0x0a, 0x35, 0x44, 0x3e, 0x32, 0x47,
  0xdb, 0xdb, 0x18, 0x2b, 0x1a, 0xb5, 0xe8, 0x1a, 0x23, 0x13, 0x2a, 0x47,
  0xe9, 0xcc, 0x0d, 0xc3, 0xd8, 0x20, 0x19, 0xdb, 0x39, 0xcb, 0xf8, 0x42,
  0x58, 0x47, 0xf9, 0xe0, 0xf4, 0xf6, 0xed, 0x08, 0xeb, 0x40, 0xd0, 0x01,
  0xd3, 0x32, 0xf5, 0xc0, 0xd2, 0xc0, 0x05, 0xfa, 0x2c, 0xd2, 0x27, 0xbb,
  0xec, 0xd1, 0x00, 0x0f, 0xb9, 0xe4, 0xd2, 0x4a, 0x1a, 0x40, 0x36, 0xc5,
  0x37, 0x48, 0xbd, 0x05, 0xd9, 0x3c, 0x3c, 0xdf, 0xb7, 0xb7, 0xfe, 0x43,
  0xef, 0xed, 0x2e, 0x19, 0xee, 0x0a, 0x3e, 0x1e, 0x2e, 0xc8, 0xe4, 0x02,
  0x03, 0x31, 0x00, 0xb9, 0xee, 0xca, 0xf6, 0xc9, 0xb9, 0xee, 0xfb, 0x32,
  0x45, 0x2c, 0xc9, 0x37, 0x44, 0x02, 0x32, 0x18, 0x24, 0xc4, 0xfc, 0x15,
  0xc5, 0xe6, 0x08, 0xd0, 0x31, 0xc6, 0xfb, 0x3d, 0xd8, 0x07, 0x2e, 0xcd,
  0xc8, 0x2d, 0xc8, 0xf5, 0xf9, 0x30, 0x05, 0xfe, 0xf8, 0xcb, 0xe1, 0xe5,
  0x22, 0xf4, 0x20, 0x37, 0x43, 0x2c, 0xd8, 0x25, 0x19, 0x39, 0xd5, 0x15,
  0x23, 0xe6, 0x29, 0x32, 0x0d, 0xcb, 0xcd, 0x36, 0xe3, 0xbf, 0xff, 0xf1,
  0x2c, 0xf7, 0x14, 0xd8, 0xde, 0xb8, 0xd0, 0x42, 0xd0, 0xfa, 0x06, 0x47,
  0x29, 0x27, 0xf0, 0x12, 0xea, 0x46, 0x1e, 0x14, 0xbd, 0x11, 0x32, 0x33,
  0x19, 0xd0, 0xfa, 0xe0, 0xff, 0xd0, 0x2b, 0x04, 0x28, 0x30, 0xfe, 0x38,
  0xfe, 0xe7, 0x1b, 0x3d, 0x1c, 0xc6, 0x36, 0x3d, 0x20, 0x3d, 0x36, 0x2f,
  0xf3, 0xbd, 0x11, 0x05, 0x41, 0x3d, 0x1e, 0x1b, 0xc0, 0x36, 0x2e, 0xd3,
  0xbd, 0x3f, 0x29, 0xfd, 0xcd, 0xfd, 0xd2, 0xd3, 0x35, 0x09, 0xe5, 0x38,
  0x06, 0xfc, 0xeb, 0xfa, 0xe5, 0xfd, 0x34, 0x0f, 0xd7, 0x37, 0xc5, 0x00,
  0x10, 0xd1, 0x47, 0x12, 0x47, 0xe5, 0x24, 0xf5, 0xda, 0x0a, 0xe3, 0xf7,
  0x56, 0x26, 0x3e, 0x43, 0xfa, 0xf2, 0x1b, 0xd9, 0xd5, 0x1a, 0xe6, 0xbc,
  0xad, 0x16, 0xd7, 0x00, 0xf7, 0x1e, 0x3d, 0xba, 0x02, 0x3d, 0xb9, 0x3a,
  0xdc, 0xfc, 0x27, 0x1a, 0x3a, 0x45, 0x36, 0xc4, 0xdb, 0x3d, 0xe3, 0x12,
  0xd9, 0xb0, 0xdb, 0x45, 0x3b, 0x3f, 0xbd, 0x1c, 0xd7, 0xd1, 0x40, 0xdc,
  0xb9, 0x0d, 0x40, 0x1f, 0x05, 0x16, 0xf4, 0xf1, 0xc7, 0x13, 0xf4, 0x2f,
  0xef, 0x22, 0xe8, 0xcc, 0x3d, 0x36, 0xba, 0x04, 0x24, 0x1f, 0x08, 0x9d,
  0xe7, 0x48, 0x13, 0x0c, 0x2b, 0xcc, 0xd1, 0xce, 0x04, 0x27, 0xfc, 0x1a,
  0x30, 0xd4, 0x00, 0xbd, 0xe5, 0xdd, 0x13, 0x41, 0xfd, 0xc9, 0xc7, 0x0b,
  0x01, 0x10, 0xf9, 0x0a, 0x02, 0xd2, 0xf5, 0xdb, 0x0a, 0x1d, 0xfa, 0xf0,
  0xbe, 0xde, 0xf0, 0xec, 0x14, 0xf8, 0xd1, 0xcb, 0x2e, 0x0d, 0x39, 0x4d,
  0x15, 0x37, 0xb5, 0x20, 0xc7, 0xff, 0xdd, 0xbd, 0xc1, 0x17, 0xd0, 0xd8,
  0x8e, 0xfe, 0xff, 0xff, 0x04, 0x00, 0x00, 0x00, 0x40, 0x00, 0x00, 0x00,
  0xf2, 0xff, 0xff, 0xff, 0xec, 0xff, 0xff, 0xff, 0x8d, 0x00, 0x00, 0x00,
  0x13, 0x00, 0x00, 0x00, 0xf4, 0xff, 0xff, 0xff, 0xee, 0xff, 0xff, 0xff,
  0xe5, 0xff, 0xff, 0xff, 0x07, 0x00, 0x00, 0x00, 0xe6, 0xff, 0xff, 0xff,
  0xfa, 0xff, 0xff, 0xff, 0xfc, 0xff, 0xff, 0xff, 0xf4, 0xff, 0xff, 0xff,
  0xf2, 0xff, 0xff, 0xff, 0xd7, 0xff, 0xff, 0xff, 0x12, 0x00, 0x00, 0x00,
  0xfb, 0xff, 0xff, 0xff, 0xda, 0xfe, 0xff, 0xff, 0x04, 0x00, 0x00, 0x00,
  0x50, 0x00, 0x00, 0x00, 0x0b, 0x20, 0x5c, 0x25, 0xe0, 0xb7, 0x5e, 0x36,
  0x52, 0xbc, 0xc0, 0x9a, 0x59, 0xb3, 0x52, 0x96, 0xbb, 0x9c, 0xea, 0xae,
  0x85, 0x2a, 0x89, 0x23, 0x09, 0x96, 0x4c, 0x02, 0xdc, 0x61, 0xf1, 0x3c,
  0x2b, 0x8f, 0x15, 0xd8, 0x9c, 0x06, 0x2c, 0xfc, 0x2a, 0x3f, 0x7b, 0x40,
  0x7f, 0x19, 0x82, 0x10, 0x89, 0xf9, 0x9a, 0xc6, 0x5b, 0x76, 0xb7, 0x16,
  0xef, 0x66, 0x8f, 0x69, 0x2b, 0x05, 0x32, 0x8e, 0x5c, 0x39, 0x88, 0x70,
  0x73, 0x59, 0x87, 0x45, 0xc0, 0x99, 0xb2, 0xcf, 0x48, 0x16, 0x46, 0xb5,
  0x36, 0xff, 0xff, 0xff, 0x04, 0x00, 0x00, 0x00, 0x14, 0x00, 0x00, 0x00,
  0x26, 0x00, 0x00, 0x00, 0x0f, 0x00, 0x00, 0x00, 0xf3, 0xff, 0xff, 0xff,
  0x02, 0x00, 0x00, 0x00, 0xe3, 0xff, 0xff, 0xff, 0x56, 0xff, 0xff, 0xff,
  0x04, 0x00, 0x00, 0x00, 0x08, 0x00, 0x00, 0x00, 0xff, 0xff, 0xff, 0xff,
  0xf0, 0x00, 0x00, 0x00, 0xb0, 0xef, 0xff, 0xff, 0xb4, 0xef, 0xff, 0xff,
  0x0f, 0x00, 0x00, 0x00, 0x4d, 0x4c, 0x49, 0x52, 0x20, 0x43, 0x6f, 0x6e,
  0x76, 0x65, 0x72, 0x74, 0x65, 0x64, 0x2e, 0x00, 0x01, 0x00, 0x00, 0x00,
  0x14, 0x00, 0x00, 0x00, 0x00, 0x00, 0x0e, 0x00, 0x18, 0x00, 0x14, 0x00,
  0x10, 0x00, 0x0c, 0x00, 0x08, 0x00, 0x04, 0x00, 0x0e, 0x00, 0x00, 0x00,
  0x14, 0x00, 0x00, 0x00, 0x1c, 0x00, 0x00, 0x00, 0x44, 0x02, 0x00, 0x00,
  0x48, 0x02, 0x00, 0x00, 0x4c, 0x02, 0x00, 0x00, 0x04, 0x00, 0x00, 0x00,
  0x6d, 0x61, 0x69, 0x6e, 0x00, 0x00, 0x00, 0x00, 0x08, 0x00, 0x00, 0x00,
  0xe0, 0x01, 0x00, 0x00, 0x80, 0x01, 0x00, 0x00, 0x30, 0x01, 0x00, 0x00,
  0xf0, 0x00, 0x00, 0x00, 0xc8, 0x00, 0x00, 0x00, 0x78, 0x00, 0x00, 0x00,
  0x40, 0x00, 0x00, 0x00, 0x04, 0x00, 0x00, 0x00, 0xaa, 0xfe, 0xff, 0xff,
  0x1c, 0x00, 0x00, 0x00, 0x00, 0x00, 0x00, 0x09, 0x1c, 0x00, 0x00, 0x00,
  0x20, 0x00, 0x00, 0x00, 0x04, 0x00, 0x00, 0x00, 0x00, 0x00, 0x06, 0x00,
  0x08, 0x00, 0x04, 0x00, 0x06, 0x00, 0x00, 0x00, 0x00, 0x00, 0x80, 0x3f,
  0x01, 0x00, 0x00, 0x00, 0x11, 0x00, 0x00, 0x00, 0x01, 0x00, 0x00, 0x00,
  0x10, 0x00, 0x00, 0x00, 0xe2, 0xfe, 0xff, 0xff, 0x14, 0x00, 0x00, 0x00,
  0x00, 0x00, 0x00, 0x08, 0x10, 0x00, 0x00, 0x00, 0x14, 0x00, 0x00, 0x00,
  0x03, 0x00, 0x00, 0x00, 0x7c, 0xf0, 0xff, 0xff, 0x01, 0x00, 0x00, 0x00,
  0x10, 0x00, 0x00, 0x00, 0x03, 0x00, 0x00, 0x00, 0x0f, 0x00, 0x00, 0x00,
  0x03, 0x00, 0x00, 0x00, 0x02, 0x00, 0x00, 0x00, 0x16, 0xff, 0xff, 0xff,
  0x1c, 0x00, 0x00, 0x00, 0x00, 0x00, 0x00, 0x08, 0x1c, 0x00, 0x00, 0x00,
  0x20, 0x00, 0x00, 0x00, 0x03, 0x00, 0x00, 0x00, 0x00, 0x00, 0x06, 0x00,
  0x08, 0x00, 0x07, 0x00, 0x06, 0x00, 0x00, 0x00, 0x00, 0x00, 0x00, 0x01,
  0x01, 0x00, 0x00, 0x00, 0x0f, 0x00, 0x00, 0x00, 0x03, 0x00, 0x00, 0x00,
  0x0e, 0x00, 0x00, 0x00, 0x05, 0x00, 0x00, 0x00, 0x04, 0x00, 0x00, 0x00,
  0x00, 0x00, 0x0a, 0x00, 0x10, 0x00, 0x0c, 0x00, 0x08, 0x00, 0x04, 0x00,
  0x0a, 0x00, 0x00, 0x00, 0x0c, 0x00, 0x00, 0x00, 0x10, 0x00, 0x00, 0x00,
  0x02, 0x00, 0x00, 0x00, 0x01, 0x00, 0x00, 0x00, 0x0e, 0x00, 0x00, 0x00,
  0x02, 0x00, 0x00, 0x00, 0x0d, 0x00, 0x00, 0x00, 0x01, 0x00, 0x00, 0x00,
  0x86, 0xff, 0xff, 0xff, 0x14, 0x00, 0x00, 0x00, 0x00, 0x00, 0x00, 0x05,
  0x20, 0x00, 0x00, 0x00, 0x24, 0x00, 0x00, 0x00, 0x01, 0x00, 0x00, 0x00,
  0x76, 0xff, 0xff, 0xff, 0x02, 0x00, 0x00, 0x00, 0x02, 0x00, 0x00, 0x00,
  0x02, 0x00, 0x00, 0x00, 0x02, 0x00, 0x00, 0x00, 0x01, 0x00, 0x00, 0x00,
  0x0d, 0x00, 0x00, 0x00, 0x01, 0x00, 0x00, 0x00, 0x0c, 0x00, 0x00, 0x00,
  0x66, 0xff, 0xff, 0xff, 0x10, 0x00, 0x00, 0x00, 0x00, 0x00, 0x00, 0x01,
  0x18, 0x00, 0x00, 0x00, 0x1c, 0x00, 0x00, 0x00, 0x58, 0xff, 0xff, 0xff,
  0x00, 0x00, 0x00, 0x01, 0x01, 0x00, 0x00, 0x00, 0x01, 0x00, 0x00, 0x00,
  0x01, 0x00, 0x00, 0x00, 0x0c, 0x00, 0x00, 0x00, 0x03, 0x00, 0x00, 0x00,
  0x0b, 0x00, 0x00, 0x00, 0x07, 0x00, 0x00, 0x00, 0x06, 0x00, 0x00, 0x00,
  0x00, 0x00, 0x0e, 0x00, 0x1a, 0x00, 0x14, 0x00, 0x10, 0x00, 0x0c, 0x00,
  0x0b, 0x00, 0x04, 0x00, 0x0e, 0x00, 0x00, 0x00, 0x24, 0x00, 0x00, 0x00,
  0x00, 0x00, 0x00, 0x05, 0x30, 0x00, 0x00, 0x00, 0x34, 0x00, 0x00, 0x00,
  0x01, 0x00, 0x00, 0x00, 0x00, 0x00, 0x0e, 0x00, 0x14, 0x00, 0x00, 0x00,
  0x10, 0x00, 0x0c, 0x00, 0x08, 0x00, 0x04, 0x00, 0x0e, 0x00, 0x00, 0x00,
  0x02, 0x00, 0x00, 0x00, 0x02, 0x00, 0x00, 0x00, 0x02, 0x00, 0x00, 0x00,
  0x02, 0x00, 0x00, 0x00, 0x01, 0x00, 0x00, 0x00, 0x0b, 0x00, 0x00, 0x00,
  0x01, 0x00, 0x00, 0x00, 0x0a, 0x00, 0x00, 0x00, 0x00, 0x00, 0x0e, 0x00,
  0x14, 0x00, 0x00, 0x00, 0x10, 0x00, 0x0c, 0x00, 0x0b, 0x00, 0x04, 0x00,
  0x0e, 0x00, 0x00, 0x00, 0x1c, 0x00, 0x00, 0x00, 0x00, 0x00, 0x00, 0x01,
  0x24, 0x00, 0x00, 0x00, 0x28, 0x00, 0x00, 0x00, 0x0c, 0x00, 0x10, 0x00,
  0x00, 0x00, 0x0c, 0x00, 0x08, 0x00, 0x07, 0x00, 0x0c, 0x00, 0x00, 0x00,
  0x00, 0x00, 0x00, 0x01, 0x01, 0x00, 0x00, 0x00, 0x01, 0x00, 0x00, 0x00,
  0x01, 0x00, 0x00, 0x00, 0x0a, 0x00, 0x00, 0x00, 0x03, 0x00, 0x00, 0x00,
  0x00, 0x00, 0x00, 0x00, 0x09, 0x00, 0x00, 0x00, 0x08, 0x00, 0x00, 0x00,
  0x01, 0x00, 0x00, 0x00, 0x11, 0x00, 0x00, 0x00, 0x01, 0x00, 0x00, 0x00,
  0x00, 0x00, 0x00, 0x00, 0x12, 0x00, 0x00, 0x00, 0x04, 0x0e, 0x00, 0x00,
  0x98, 0x0d, 0x00, 0x00, 0x08, 0x0d, 0x00, 0x00, 0x9c, 0x0c, 0x00, 0x00,
  0x20, 0x0c, 0x00, 0x00, 0xb4, 0x0b, 0x00, 0x00, 0x80, 0x0a, 0x00, 0x00,
  0x54, 0x09, 0x00, 0x00, 0x60, 0x07, 0x00, 0x00, 0x74, 0x05, 0x00, 0x00,
  0x80, 0x04, 0x00, 0x00, 0xe4, 0x03, 0x00, 0x00, 0xf0, 0x02, 0x00, 0x00,
  0x54, 0x02, 0x00, 0x00, 0xd0, 0x01, 0x00, 0x00, 0x1c, 0x01, 0x00, 0x00,
  0x80, 0x00, 0x00, 0x00, 0x04, 0x00, 0x00, 0x00, 0x5a, 0xf2, 0xff, 0xff,
  0x00, 0x00, 0x00, 0x01, 0x18, 0x00, 0x00, 0x00, 0x20, 0x00, 0x00, 0x00,
  0x3c, 0x00, 0x00, 0x00, 0x12, 0x00, 0x00, 0x00, 0x00, 0x00, 0x00, 0x09,
  0x50, 0x00, 0x00, 0x00, 0x02, 0x00, 0x00, 0x00, 0xff, 0xff, 0xff, 0xff,
  0x05, 0x00, 0x00, 0x00, 0x3c, 0xf2, 0xff, 0xff, 0x08, 0x00, 0x00, 0x00,
  0x10, 0x00, 0x00, 0x00, 0x01, 0x00, 0x00, 0x00, 0x80, 0xff, 0xff, 0xff,
  0xff, 0xff, 0xff, 0xff, 0x01, 0x00, 0x00, 0x00, 0x00, 0x00, 0x80, 0x3b,
  0x19, 0x00, 0x00, 0x00, 0x53, 0x74, 0x61, 0x74, 0x65, 0x66, 0x75, 0x6c,
  0x50, 0x61, 0x72, 0x74, 0x69, 0x74, 0x69, 0x6f, 0x6e, 0x65, 0x64, 0x43,
  0x61, 0x6c, 0x6c, 0x3a, 0x30, 0x00, 0x00, 0x00, 0x02, 0x00, 0x00, 0x00,
  0x01, 0x00, 0x00, 0x00, 0x05, 0x00, 0x00, 0x00, 0xd2, 0xf2, 0xff, 0xff,
  0x00, 0x00, 0x00, 0x01, 0x18, 0x00, 0x00, 0x00, 0x20, 0x00, 0x00, 0x00,
  0x3c, 0x00, 0x00, 0x00, 0x11, 0x00, 0x00, 0x00, 0x00, 0x00, 0x00, 0x09,
  0x70, 0x00, 0x00, 0x00, 0x02, 0x00, 0x00, 0x00, 0xff, 0xff, 0xff, 0xff,
  0x05, 0x00, 0x00, 0x00, 0xb4, 0xf2, 0xff, 0xff, 0x08, 0x00, 0x00, 0x00,
  0x10, 0x00, 0x00, 0x00, 0x01, 0x00, 0x00, 0x00, 0xf6, 0xff, 0xff, 0xff,
  0xff, 0xff, 0xff, 0xff, 0x01, 0x00, 0x00, 0x00, 0x7a, 0xe4, 0x2e, 0x3e,
  0x38, 0x00, 0x00, 0x00, 0x73, 0x65, 0x71, 0x75, 0x65, 0x6e, 0x74, 0x69,
  0x61, 0x6c, 0x5f, 0x31, 0x2f, 0x64, 0x65, 0x6e, 0x73, 0x65, 0x5f, 0x33,
  0x2f, 0x4d, 0x61, 0x74, 0x4d, 0x75, 0x6c, 0x3b, 0x73, 0x65, 0x71, 0x75,
  0x65, 0x6e, 0x74, 0x69, 0x61, 0x6c, 0x5f, 0x31, 0x2f, 0x64, 0x65, 0x6e,
  0x73, 0x65, 0x5f, 0x33, 0x2f, 0x42, 0x69, 0x61, 0x73, 0x41, 0x64, 0x64,
  0x00, 0x00, 0x00, 0x00, 0x02, 0x00, 0x00, 0x00, 0x01, 0x00, 0x00, 0x00,
  0x05, 0x00, 0x00, 0x00, 0x6a, 0xf3, 0xff, 0xff, 0x00, 0x00, 0x00, 0x01,
  0x18, 0x00, 0x00, 0x00, 0x20, 0x00, 0x00, 0x00, 0x3c, 0x00, 0x00, 0x00,
  0x10, 0x00, 0x00, 0x00, 0x00, 0x00, 0x00, 0x09, 0x88, 0x00, 0x00, 0x00,
  0x02, 0x00, 0x00, 0x00, 0xff, 0xff, 0xff, 0xff, 0x10, 0x00, 0x00, 0x00,
  0x4c, 0xf3, 0xff, 0xff, 0x08, 0x00, 0x00, 0x00, 0x10, 0x00, 0x00, 0x00,
  0x01, 0x00, 0x00, 0x00, 0x80, 0xff, 0xff, 0xff, 0xff, 0xff, 0xff, 0xff,
  0x01, 0x00, 0x00, 0x00, 0x8f, 0x16, 0xe6, 0x3d, 0x52, 0x00, 0x00, 0x00,
  0x73, 0x65, 0x71, 0x75, 0x65, 0x6e, 0x74, 0x69, 0x61, 0x6c, 0x5f, 0x31,
  0x2f, 0x64, 0x65, 0x6e, 0x73, 0x65, 0x5f, 0x32, 0x2f, 0x4d, 0x61, 0x74,
  0x4d, 0x75, 0x6c, 0x3b, 0x73, 0x65, 0x71, 0x75, 0x65, 0x6e, 0x74, 0x69,
  0x61, 0x6c, 0x5f, 0x31, 0x2f, 0x64, 0x65, 0x6e, 0x73, 0x65, 0x5f, 0x32,
  0x2f, 0x52, 0x65, 0x6c, 0x75, 0x3b, 0x73, 0x65, 0x71, 0x75, 0x65, 0x6e,
  0x74, 0x69, 0x61, 0x6c, 0x5f, 0x31, 0x2f, 0x64, 0x65, 0x6e, 0x73, 0x65,
  0x5f, 0x32, 0x2f, 0x42, 0x69, 0x61, 0x73, 0x41, 0x64, 0x64, 0x00, 0x00,
  0x02, 0x00, 0x00, 0x00, 0x01, 0x00, 0x00, 0x00, 0x10, 0x00, 0x00, 0x00,
  0x1a, 0xf4, 0xff, 0xff, 0x00, 0x00, 0x00, 0x01, 0x18, 0x00, 0x00, 0x00,
  0x20, 0x00, 0x00, 0x00, 0x40, 0x00, 0x00, 0x00, 0x0f, 0x00, 0x00, 0x00,
  0x00, 0x00, 0x00, 0x09, 0x58, 0x00, 0x00, 0x00, 0x02, 0x00, 0x00, 0x00,
  0xff, 0xff, 0xff, 0xff, 0xf0, 0x00, 0x00, 0x00, 0xfc, 0xf3, 0xff, 0xff,
  0x08, 0x00, 0x00, 0x00, 0x14, 0x00, 0x00, 0x00, 0x01, 0x00, 0x00, 0x00,
  0x80, 0xff, 0xff, 0xff, 0xff, 0xff, 0xff, 0xff, 0x00, 0x00, 0x00, 0x00,
  0x01, 0x00, 0x00, 0x00, 0xdf, 0x98, 0x0d, 0x3e, 0x1e, 0x00, 0x00, 0x00,
  0x73, 0x65, 0x71, 0x75, 0x65, 0x6e, 0x74, 0x69, 0x61, 0x6c, 0x5f, 0x31,
  0x2f, 0x66, 0x6c, 0x61, 0x74, 0x74, 0x65, 0x6e, 0x5f, 0x31, 0x2f, 0x52,
  0x65, 0x73, 0x68, 0x61, 0x70, 0x65, 0x00, 0x00, 0x02, 0x00, 0x00, 0x00,
  0x01, 0x00, 0x00, 0x00, 0xf0, 0x00, 0x00, 0x00, 0x9a, 0xf4, 0xff, 0xff,
  0x00, 0x00, 0x00, 0x01, 0x18, 0x00, 0x00, 0x00, 0x28, 0x00, 0x00, 0x00,
  0x48, 0x00, 0x00, 0x00, 0x0e, 0x00, 0x00, 0x00, 0x00, 0x00, 0x00, 0x09,
  0x68, 0x00, 0x00, 0x00, 0x04, 0x00, 0x00, 0x00, 0xff, 0xff, 0xff, 0xff,
  0x03, 0x00, 0x00, 0x00, 0x05, 0x00, 0x00, 0x00, 0x10, 0x00, 0x00, 0x00,
  0x84, 0xf4, 0xff, 0xff, 0x08, 0x00, 0x00, 0x00, 0x14, 0x00, 0x00, 0x00,
  0x01, 0x00, 0x00, 0x00, 0x80, 0xff, 0xff, 0xff, 0xff, 0xff, 0xff, 0xff,
  0x00, 0x00, 0x00, 0x00, 0x01, 0x00, 0x00, 0x00, 0xdf, 0x98, 0x0d, 0x3e,
  0x24, 0x00, 0x00, 0x00, 0x73, 0x65, 0x71, 0x75, 0x65, 0x6e, 0x74, 0x69,
  0x61, 0x6c, 0x5f, 0x31, 0x2f, 0x6d, 0x61, 0x78, 0x5f, 0x70, 0x6f, 0x6f,
  0x6c, 0x69, 0x6e, 0x67, 0x32, 0x64, 0x5f, 0x33, 0x2f, 0x4d, 0x61, 0x78,
  0x50, 0x6f, 0x6f, 0x6c, 0x00, 0x00, 0x00, 0x00, 0x04, 0x00, 0x00, 0x00,
  0x01, 0x00, 0x00, 0x00, 0x03, 0x00, 0x00, 0x00, 0x05, 0x00, 0x00, 0x00,
  0x10, 0x00, 0x00, 0x00, 0x32, 0xf5, 0xff, 0xff, 0x00, 0x00, 0x00, 0x01,
  0x18, 0x00, 0x00, 0x00, 0x28, 0x00, 0x00, 0x00, 0x44, 0x00, 0x00, 0x00,
  0x0d, 0x00, 0x00, 0x00, 0x00, 0x00, 0x00, 0x09, 0xc0, 0x00, 0x00, 0x00,
  0x04, 0x00, 0x00, 0x00, 0xff, 0xff, 0xff, 0xff, 0x05, 0x00, 0x00, 0x00,
  0x09, 0x00, 0x00, 0x00, 0x10, 0x00, 0x00, 0x00, 0x1c, 0xf5, 0xff, 0xff,
  0x08, 0x00, 0x00, 0x00, 0x10, 0x00, 0x00, 0x00, 0x01, 0x00, 0x00, 0x00,
  0x80, 0xff, 0xff, 0xff, 0xff, 0xff, 0xff, 0xff, 0x01, 0x00, 0x00, 0x00,
  0xdf, 0x98, 0x0d, 0x3e, 0x82, 0x00, 0x00, 0x00, 0x73, 0x65, 0x71, 0x75,
  0x65, 0x6e, 0x74, 0x69, 0x61, 0x6c, 0x5f, 0x31, 0x2f, 0x63, 0x6f, 0x6e,
  0x76, 0x32, 0x64, 0x5f, 0x33, 0x2f, 0x52, 0x65, 0x6c, 0x75, 0x3b, 0x73,
  0x65, 0x71, 0x75, 0x65, 0x6e, 0x74, 0x69, 0x61, 0x6c, 0x5f, 0x31, 0x2f,
  0x63, 0x6f, 0x6e, 0x76, 0x32, 0x64, 0x5f, 0x33, 0x2f, 0x42, 0x69, 0x61,
  0x73, 0x41, 0x64, 0x64, 0x3b, 0x73, 0x65, 0x71, 0x75, 0x65, 0x6e, 0x74,
  0x69, 0x61, 0x6c, 0x5f, 0x31, 0x2f, 0x63, 0x6f, 0x6e, 0x76, 0x32, 0x64,
  0x5f, 0x33, 0x2f, 0x43, 0x6f, 0x6e, 0x76, 0x32, 0x44, 0x3b, 0x73, 0x65,
  0x71, 0x75, 0x65, 0x6e, 0x74, 0x69, 0x61, 0x6c, 0x5f, 0x31, 0x2f, 0x63,
  0x6f, 0x6e, 0x76, 0x32, 0x64, 0x5f, 0x33, 0x2f, 0x42, 0x69, 0x61, 0x73,
  0x41, 0x64, 0x64, 0x2f, 0x52, 0x65, 0x61, 0x64, 0x56, 0x61, 0x72, 0x69,
  0x61, 0x62, 0x6c, 0x65, 0x4f, 0x70, 0x00, 0x00, 0x04, 0x00, 0x00, 0x00,
  0x01, 0x00, 0x00, 0x00, 0x05, 0x00, 0x00, 0x00, 0x09, 0x00, 0x00, 0x00,
  0x10, 0x00, 0x00, 0x00, 0x22, 0xf6, 0xff, 0xff, 0x00, 0x00, 0x00, 0x01,
  0x18, 0x00, 0x00, 0x00, 0x28, 0x00, 0x00, 0x00, 0x48, 0x00, 0x00, 0x00,
  0x0c, 0x00, 0x00, 0x00, 0x00, 0x00, 0x00, 0x09, 0x68, 0x00, 0x00, 0x00,
  0x04, 0x00, 0x00, 0x00, 0xff, 0xff, 0xff, 0xff, 0x05, 0x00, 0x00, 0x00,
  0x09, 0x00, 0x00, 0x00, 0x20, 0x00, 0x00, 0x00, 0x0c, 0xf6, 0xff, 0xff,
  0x08, 0x00, 0x00, 0x00, 0x14, 0x00, 0x00, 0x00, 0x01, 0x00, 0x00, 0x00,
  0x80, 0xff, 0xff, 0xff, 0xff, 0xff, 0xff, 0xff, 0x00, 0x00, 0x00, 0x00,
  0x01, 0x00, 0x00, 0x00, 0xf5, 0x65, 0x37, 0x3e, 0x24, 0x00, 0x00, 0x00,
  0x73, 0x65, 0x71, 0x75, 0x65, 0x6e, 0x74, 0x69, 0x61, 0x6c, 0x5f, 0x31,
  0x2f, 0x6d, 0x61, 0x78, 0x5f, 0x70, 0x6f, 0x6f, 0x6c, 0x69, 0x6e, 0x67,
  0x32, 0x64, 0x5f, 0x32, 0x2f, 0x4d, 0x61, 0x78, 0x50, 0x6f, 0x6f, 0x6c,
  0x00, 0x00, 0x00, 0x00, 0x04, 0x00, 0x00, 0x00, 0x01, 0x00, 0x00, 0x00,
  0x05, 0x00, 0x00, 0x00, 0x09, 0x00, 0x00, 0x00, 0x20, 0x00, 0x00, 0x00,
  0xba, 0xf6, 0xff, 0xff, 0x00, 0x00, 0x00, 0x01, 0x18, 0x00, 0x00, 0x00,
  0x28, 0x00, 0x00, 0x00, 0x44, 0x00, 0x00, 0x00, 0x0b, 0x00, 0x00, 0x00,
  0x00, 0x00, 0x00, 0x09, 0xc0, 0x00, 0x00, 0x00, 0x04, 0x00, 0x00, 0x00,
  0xff, 0xff, 0xff, 0xff, 0x0a, 0x00, 0x00, 0x00, 0x12, 0x00, 0x00, 0x00,
  0x20, 0x00, 0x00, 0x00, 0xa4, 0xf6, 0xff, 0xff, 0x08, 0x00, 0x00, 0x00,
  0x10, 0x00, 0x00, 0x00, 0x01, 0x00, 0x00, 0x00, 0x80, 0xff, 0xff, 0xff,
  0xff, 0xff, 0xff, 0xff, 0x01, 0x00, 0x00, 0x00, 0xf5, 0x65, 0x37, 0x3e,
  0x82, 0x00, 0x00, 0x00, 0x73, 0x65, 0x71, 0x75, 0x65, 0x6e, 0x74, 0x69,
  0x61, 0x6c, 0x5f, 0x31, 0x2f, 0x63, 0x6f, 0x6e, 0x76, 0x32, 0x64, 0x5f,
  0x32, 0x2f, 0x52, 0x65, 0x6c, 0x75, 0x3b, 0x73, 0x65, 0x71, 0x75, 0x65,
  0x6e, 0x74, 0x69, 0x61, 0x6c, 0x5f, 0x31, 0x2f, 0x63, 0x6f, 0x6e, 0x76,
  0x32, 0x64, 0x5f, 0x32, 0x2f, 0x42, 0x69, 0x61, 0x73, 0x41, 0x64, 0x64,
  0x3b, 0x73, 0x65, 0x71, 0x75, 0x65, 0x6e, 0x74, 0x69, 0x61, 0x6c, 0x5f,
  0x31, 0x2f, 0x63, 0x6f, 0x6e, 0x76, 0x32, 0x64, 0x5f, 0x32, 0x2f, 0x43,
  0x6f, 0x6e, 0x76, 0x32, 0x44, 0x3b, 0x73, 0x65, 0x71, 0x75, 0x65, 0x6e,
  0x74, 0x69, 0x61, 0x6c, 0x5f, 0x31, 0x2f, 0x63, 0x6f, 0x6e, 0x76, 0x32,
  0x64, 0x5f, 0x32, 0x2f, 0x42, 0x69, 0x61, 0x73, 0x41, 0x64, 0x64, 0x2f,
  0x52, 0x65, 0x61, 0x64, 0x56, 0x61, 0x72, 0x69, 0x61, 0x62, 0x6c, 0x65,
  0x4f, 0x70, 0x00, 0x00, 0x04, 0x00, 0x00, 0x00, 0x01, 0x00, 0x00, 0x00,
  0x0a, 0x00, 0x00, 0x00, 0x12, 0x00, 0x00, 0x00, 0x20, 0x00, 0x00, 0x00,
  0x12, 0xf8, 0xff, 0xff, 0x00, 0x00, 0x00, 0x01, 0x14, 0x00, 0x00, 0x00,
  0xa4, 0x01, 0x00, 0x00, 0x0a, 0x00, 0x00, 0x00, 0x00, 0x00, 0x00, 0x09,
  0xbc, 0x01, 0x00, 0x00, 0x7c, 0xf7, 0xff, 0xff, 0x08, 0x00, 0x00, 0x00,
  0x08, 0x01, 0x00, 0x00, 0x20, 0x00, 0x00, 0x00, 0x00, 0x00, 0x00, 0x00,
  0x00, 0x00, 0x00, 0x00, 0x00, 0x00, 0x00, 0x00, 0x00, 0x00, 0x00, 0x00,
  0x00, 0x00, 0x00, 0x00, 0x00, 0x00, 0x00, 0x00, 0x00, 0x00, 0x00, 0x00,
  0x00, 0x00, 0x00, 0x00, 0x00, 0x00, 0x00, 0x00, 0x00, 0x00, 0x00, 0x00,
  0x00, 0x00, 0x00, 0x00, 0x00, 0x00, 0x00, 0x00, 0x00, 0x00, 0x00, 0x00,
  0x00, 0x00, 0x00, 0x00, 0x00, 0x00, 0x00, 0x00, 0x00, 0x00, 0x00, 0x00,
  0x00, 0x00, 0x00, 0x00, 0x00, 0x00, 0x00, 0x00, 0x00, 0x00, 0x00, 0x00,
  0x00, 0x00, 0x00, 0x00, 0x00, 0x00, 0x00, 0x00, 0x00, 0x00, 0x00, 0x00,
  0x00, 0x00, 0x00, 0x00, 0x00, 0x00, 0x00, 0x00, 0x00, 0x00, 0x00, 0x00,
  0x00, 0x00, 0x00, 0x00, 0x00, 0x00, 0x00, 0x00, 0x00, 0x00, 0x00, 0x00,
  0x00, 0x00, 0x00, 0x00, 0x00, 0x00, 0x00, 0x00, 0x00, 0x00, 0x00, 0x00,
  0x00, 0x00, 0x00, 0x00, 0x00, 0x00, 0x00, 0x00, 0x00, 0x00, 0x00, 0x00,
  0x00, 0x00, 0x00, 0x00, 0x00, 0x00, 0x00, 0x00, 0x00, 0x00, 0x00, 0x00,
  0x00, 0x00, 0x00, 0x00, 0x00, 0x00, 0x00, 0x00, 0x00, 0x00, 0x00, 0x00,
  0x00, 0x00, 0x00, 0x00, 0x00, 0x00, 0x00, 0x00, 0x00, 0x00, 0x00, 0x00,
  0x00, 0x00, 0x00, 0x00, 0x00, 0x00, 0x00, 0x00, 0x00, 0x00, 0x00, 0x00,
  0x00, 0x00, 0x00, 0x00, 0x00, 0x00, 0x00, 0x00, 0x00, 0x00, 0x00, 0x00,
  0x00, 0x00, 0x00, 0x00, 0x00, 0x00, 0x00, 0x00, 0x00, 0x00, 0x00, 0x00,
  0x00, 0x00, 0x00, 0x00, 0x00, 0x00, 0x00, 0x00, 0x00, 0x00, 0x00, 0x00,
  0x00, 0x00, 0x00, 0x00, 0x00, 0x00, 0x00, 0x00, 0x00, 0x00, 0x00, 0x00,
  0x00, 0x00, 0x00, 0x00, 0x00, 0x00, 0x00, 0x00, 0x00, 0x00, 0x00, 0x00,
  0x00, 0x00, 0x00, 0x00, 0x00, 0x00, 0x00, 0x00, 0x00, 0x00, 0x00, 0x00,
  0x20, 0x00, 0x00, 0x00, 0xef, 0xfc, 0xba, 0x3a, 0x78, 0x31, 0x8d, 0x3a,
  0x6b, 0x26, 0x82, 0x3a, 0x50, 0xdc, 0x62, 0x3a, 0xbc, 0xdb, 0x96, 0x3a,
  0xd2, 0x7a, 0x8c, 0x3a, 0x8e, 0xe2, 0x53, 0x3a, 0xc5, 0xa2, 0x8c, 0x3a,
  0xa6, 0xc3, 0x76, 0x3a, 0x15, 0xf6, 0x8d, 0x3a, 0xa2, 0x13, 0x8f, 0x3a,
  0x7a, 0x98, 0xa5, 0x3a, 0x67, 0xb5, 0x9c, 0x3a, 0xac, 0x9f, 0x91, 0x3a,
  0xd2, 0xb0, 0x89, 0x3a, 0xa3, 0xac, 0x71, 0x3a, 0x64, 0x64, 0x7f, 0x3a,
  0x9d, 0xd3, 0x67, 0x3a, 0x37, 0x20, 0x54, 0x3a, 0xbc, 0xa4, 0x37, 0x3a,
  0x84, 0x83, 0x88, 0x3a, 0x0c, 0x95, 0x89, 0x3a, 0x00, 0xfe, 0x92, 0x3a,
  0x6a, 0x8d, 0x77, 0x3a, 0x70, 0x2e, 0x7e, 0x3a, 0x13, 0xf4, 0x8f, 0x3a,
  0xde, 0xd1, 0x65, 0x3a, 0xd0, 0x34, 0xa6, 0x3a, 0xac, 0x13, 0x7f, 0x3a,
  0xc5, 0xdb, 0x92, 0x3a, 0x3a, 0x1a, 0x8a, 0x3a, 0x9a, 0x33, 0x99, 0x3a,
  0x1c, 0x00, 0x00, 0x00, 0x73, 0x65, 0x71, 0x75, 0x65, 0x6e, 0x74, 0x69,
  0x61, 0x6c, 0x5f, 0x31, 0x2f, 0x63, 0x6f, 0x6e, 0x76, 0x32, 0x64, 0x5f,
  0x32, 0x2f, 0x43, 0x6f, 0x6e, 0x76, 0x32, 0x44, 0x00, 0x00, 0x00, 0x00,
  0x04, 0x00, 0x00, 0x00, 0x20, 0x00, 0x00, 0x00, 0x03, 0x00, 0x00, 0x00,
  0x03, 0x00, 0x00, 0x00, 0x01, 0x00, 0x00, 0x00, 0xfa, 0xf9, 0xff, 0xff,
  0x00, 0x00, 0x00, 0x01, 0x14, 0x00, 0x00, 0x00, 0xa8, 0x01, 0x00, 0x00,
  0x09, 0x00, 0x00, 0x00, 0x00, 0x00, 0x00, 0x02, 0xd0, 0x01, 0x00, 0x00,
  0x64, 0xf9, 0xff, 0xff, 0x08, 0x00, 0x00, 0x00, 0x0c, 0x01, 0x00, 0x00,
  0x20, 0x00, 0x00, 0x00, 0x00, 0x00, 0x00, 0x00, 0x00, 0x00, 0x00, 0x00,
  0x00, 0x00, 0x00, 0x00, 0x00, 0x00, 0x00, 0x00, 0x00, 0x00, 0x00, 0x00,
  0x00, 0x00, 0x00, 0x00, 0x00, 0x00, 0x00, 0x00, 0x00, 0x00, 0x00, 0x00,
  0x00, 0x00, 0x00, 0x00, 0x00, 0x00, 0x00, 0x00, 0x00, 0x00, 0x00, 0x00,
  0x00, 0x00, 0x00, 0x00, 0x00, 0x00, 0x00, 0x00, 0x00, 0x00, 0x00, 0x00,
  0x00, 0x00, 0x00, 0x00, 0x00, 0x00, 0x00, 0x00, 0x00, 0x00, 0x00, 0x00,
  0x00, 0x00, 0x00, 0x00, 0x00, 0x00, 0x00, 0x00, 0x00, 0x00, 0x00, 0x00,
  0x00, 0x00, 0x00, 0x00, 0x00, 0x00, 0x00, 0x00, 0x00, 0x00, 0x00, 0x00,
  0x00, 0x00, 0x00, 0x00, 0x00, 0x00, 0x00, 0x00, 0x00, 0x00, 0x00, 0x00,
  0x00, 0x00, 0x00, 0x00, 0x00, 0x00, 0x00, 0x00, 0x00, 0x00, 0x00, 0x00,
  0x00, 0x00, 0x00, 0x00, 0x00, 0x00, 0x00, 0x00, 0x00, 0x00, 0x00, 0x00,
  0x00, 0x00, 0x00, 0x00, 0x00, 0x00, 0x00, 0x00, 0x00, 0x00, 0x00, 0x00,
  0x00, 0x00, 0x00, 0x00, 0x00, 0x00, 0x00, 0x00, 0x00, 0x00, 0x00, 0x00,
  0x00, 0x00, 0x00, 0x00, 0x00, 0x00, 0x00, 0x00, 0x00, 0x00, 0x00, 0x00,
  0x00, 0x00, 0x00, 0x00, 0x00, 0x00, 0x00, 0x00, 0x00, 0x00, 0x00, 0x00,
  0x00, 0x00, 0x00, 0x00, 0x00, 0x00, 0x00, 0x00, 0x00, 0x00, 0x00, 0x00,
  0x00, 0x00, 0x00, 0x00, 0x00, 0x00, 0x00, 0x00, 0x00, 0x00, 0x00, 0x00,
  0x00, 0x00, 0x00, 0x00, 0x00, 0x00, 0x00, 0x00, 0x00, 0x00, 0x00, 0x00,
  0x00, 0x00, 0x00, 0x00, 0x00, 0x00, 0x00, 0x00, 0x00, 0x00, 0x00, 0x00,
  0x00, 0x00, 0x00, 0x00, 0x00, 0x00, 0x00, 0x00, 0x00, 0x00, 0x00, 0x00,
  0x00, 0x00, 0x00, 0x00, 0x00, 0x00, 0x00, 0x00, 0x00, 0x00, 0x00, 0x00,
  0x00, 0x00, 0x00, 0x00, 0x00, 0x00, 0x00, 0x00, 0x00, 0x00, 0x00, 0x00,
  0x20, 0x00, 0x00, 0x00, 0x43, 0xa8, 0x12, 0x3a, 0xc7, 0x7a, 0xdd, 0x39,
  0x30, 0x28, 0xcc, 0x39, 0x0d, 0xee, 0xb1, 0x39, 0xfa, 0xa3, 0xec, 0x39,
  0x45, 0x5c, 0xdc, 0x39, 0x2e, 0x2f, 0xa6, 0x39, 0xef, 0x9a, 0xdc, 0x39,
  0x64, 0x8a, 0xc1, 0x39, 0x30, 0xaf, 0xde, 0x39, 0x1c, 0x6f, 0xe0, 0x39,
  0x00, 0xe1, 0x01, 0x3a, 0x42, 0xd1, 0xf5, 0x39, 0xeb, 0x6d, 0xe4, 0x39,
  0x45, 0xfc, 0xd7, 0x39, 0x6c, 0x8c, 0xbd, 0x39, 0xbd, 0x4e, 0xc8, 0x39,
  0x26, 0xd3, 0xb5, 0x39, 0x8b, 0x5f, 0xa6, 0x39, 0xbc, 0x08, 0x90, 0x39,
  0xa2, 0x23, 0xd6, 0x39, 0xb4, 0xd0, 0xd7, 0x39, 0x74, 0x93, 0xe6, 0x39,
  0xa4, 0x28, 0xc2, 0x39, 0xa3, 0x5b, 0xc7, 0x39, 0x2d, 0xcf, 0xe1, 0x39,
  0x36, 0x40, 0xb4, 0x39, 0x9e, 0x5b, 0x02, 0x3a, 0x6e, 0x0f, 0xc8, 0x39,
  0xc2, 0x5d, 0xe6, 0x39, 0x9c, 0xa1, 0xd8, 0x39, 0xf2, 0x50, 0xf0, 0x39,
  0x2c, 0x00, 0x00, 0x00, 0x73, 0x65, 0x71, 0x75, 0x65, 0x6e, 0x74, 0x69,
  0x61, 0x6c, 0x5f, 0x31, 0x2f, 0x63, 0x6f, 0x6e, 0x76, 0x32, 0x64, 0x5f,
  0x32, 0x2f, 0x42, 0x69, 0x61, 0x73, 0x41, 0x64, 0x64, 0x2f, 0x52, 0x65,
  0x61, 0x64, 0x56, 0x61, 0x72, 0x69, 0x61, 0x62, 0x6c, 0x65, 0x4f, 0x70,
  0x00, 0x00, 0x00, 0x00, 0x01, 0x00, 0x00, 0x00, 0x20, 0x00, 0x00, 0x00,
  0xea, 0xfb, 0xff, 0xff, 0x00, 0x00, 0x00, 0x01, 0x14, 0x00, 0x00, 0x00,
  0xe4, 0x00, 0x00, 0x00, 0x08, 0x00, 0x00, 0x00, 0x00, 0x00, 0x00, 0x09,
  0xfc, 0x00, 0x00, 0x00, 0x54, 0xfb, 0xff, 0xff, 0x08, 0x00, 0x00, 0x00,
  0x88, 0x00, 0x00, 0x00, 0x10, 0x00, 0x00, 0x00, 0x00, 0x00, 0x00, 0x00,
  0x00, 0x00, 0x00, 0x00, 0x00, 0x00, 0x00, 0x00, 0x00, 0x00, 0x00, 0x00,
  0x00, 0x00, 0x00, 0x00, 0x00, 0x00, 0x00, 0x00, 0x00, 0x00, 0x00, 0x00,
  0x00, 0x00, 0x00, 0x00, 0x00, 0x00, 0x00, 0x00, 0x00, 0x00, 0x00, 0x00,
  0x00, 0x00, 0x00, 0x00, 0x00, 0x00, 0x00, 0x00, 0x00, 0x00, 0x00, 0x00,
  0x00, 0x00, 0x00, 0x00, 0x00, 0x00, 0x00, 0x00, 0x00, 0x00, 0x00, 0x00,
  0x00, 0x00, 0x00, 0x00, 0x00, 0x00, 0x00, 0x00, 0x00, 0x00, 0x00, 0x00,
  0x00, 0x00, 0x00, 0x00, 0x00, 0x00, 0x00, 0x00, 0x00, 0x00, 0x00, 0x00,
  0x00, 0x00, 0x00, 0x00, 0x00, 0x00, 0x00, 0x00, 0x00, 0x00, 0x00, 0x00,
  0x00, 0x00, 0x00, 0x00, 0x00, 0x00, 0x00, 0x00, 0x00, 0x00, 0x00, 0x00,
  0x00, 0x00, 0x00, 0x00, 0x00, 0x00, 0x00, 0x00, 0x00, 0x00, 0x00, 0x00,
  0x00, 0x00, 0x00, 0x00, 0x10, 0x00, 0x00, 0x00, 0x84, 0x1e, 0xda, 0x3a,
  0x39, 0xf6, 0x03, 0x3b, 0xa3, 0x34, 0xe1, 0x3a, 0x04, 0x15, 0xe3, 0x3a,
  0x0f, 0x77, 0x00, 0x3b, 0xae, 0x15, 0x94, 0x3a, 0xd3, 0xbe, 0x05, 0x3b,
  0x21, 0x1b, 0x05, 0x3b, 0xb0, 0xa8, 0x31, 0x3b, 0xc2, 0x11, 0xf3, 0x3a,
  0x3f, 0x69, 0xc6, 0x3a, 0x42, 0xa1, 0x02, 0x3b, 0xcf, 0xf6, 0xf4, 0x3a,
  0x7e, 0x7b, 0xe1, 0x3a, 0xc3, 0x8d, 0xc6, 0x3a, 0x4b, 0x9d, 0xfb, 0x3a,
  0x1c, 0x00, 0x00, 0x00, 0x73, 0x65, 0x71, 0x75, 0x65, 0x6e, 0x74, 0x69,
  0x61, 0x6c, 0x5f, 0x31, 0x2f, 0x63, 0x6f, 0x6e, 0x76, 0x32, 0x64, 0x5f,
  0x33, 0x2f, 0x43, 0x6f, 0x6e, 0x76, 0x32, 0x44, 0x00, 0x00, 0x00, 0x00,
  0x04, 0x00, 0x00, 0x00, 0x10, 0x00, 0x00, 0x00, 0x03, 0x00, 0x00, 0x00,
  0x03, 0x00, 0x00, 0x00, 0x20, 0x00, 0x00, 0x00, 0x12, 0xfd, 0xff, 0xff,
  0x00, 0x00, 0x00, 0x01, 0x14, 0x00, 0x00, 0x00, 0xe8, 0x00, 0x00, 0x00,
  0x07, 0x00, 0x00, 0x00, 0x00, 0x00, 0x00, 0x02, 0x10, 0x01, 0x00, 0x00,
  0x7c, 0xfc, 0xff, 0xff, 0x08, 0x00, 0x00, 0x00, 0x8c, 0x00, 0x00, 0x00,
  0x10, 0x00, 0x00, 0x00, 0x00, 0x00, 0x00, 0x00, 0x00, 0x00, 0x00, 0x00,
  0x00, 0x00, 0x00, 0x00, 0x00, 0x00, 0x00, 0x00, 0x00, 0x00, 0x00, 0x00,
  0x00, 0x00, 0x00, 0x00, 0x00, 0x00, 0x00, 0x00, 0x00, 0x00, 0x00, 0x00,
  0x00, 0x00, 0x00, 0x00, 0x00, 0x00, 0x00, 0x00, 0x00, 0x00, 0x00, 0x00,
  0x00, 0x00, 0x00, 0x00, 0x00, 0x00, 0x00, 0x00, 0x00, 0x00, 0x00, 0x00,
  0x00, 0x00, 0x00, 0x00, 0x00, 0x00, 0x00, 0x00, 0x00, 0x00, 0x00, 0x00,
  0x00, 0x00, 0x00, 0x00, 0x00, 0x00, 0x00, 0x00, 0x00, 0x00, 0x00, 0x00,
  0x00, 0x00, 0x00, 0x00, 0x00, 0x00, 0x00, 0x00, 0x00, 0x00, 0x00, 0x00,
  0x00, 0x00, 0x00, 0x00, 0x00, 0x00, 0x00, 0x00, 0x00, 0x00, 0x00, 0x00,
  0x00, 0x00, 0x00, 0x00, 0x00, 0x00, 0x00, 0x00, 0x00, 0x00, 0x00, 0x00,
  0x00, 0x00, 0x00, 0x00, 0x00, 0x00, 0x00, 0x00, 0x00, 0x00, 0x00, 0x00,
  0x00, 0x00, 0x00, 0x00, 0x10, 0x00, 0x00, 0x00, 0xaf, 0x42, 0x9c, 0x39,
  0x22, 0x13, 0xbd, 0x39, 0x52, 0x56, 0xa1, 0x39, 0x76, 0xae, 0xa2, 0x39,
  0x8b, 0x10, 0xb8, 0x39, 0xf3, 0x2c, 0x54, 0x39, 0x5a, 0xa1, 0xbf, 0x39,
  0xcf, 0xb6, 0xbe, 0x39, 0xaf, 0x8c, 0xfe, 0x39, 0x80, 0x22, 0xae, 0x39,
  0x41, 0x24, 0x8e, 0x39, 0x9a, 0x2a, 0xbb, 0x39, 0xfe, 0x7d, 0xaf, 0x39,
  0x15, 0x89, 0xa1, 0x39, 0x6a, 0x3e, 0x8e, 0x39, 0xa6, 0x41, 0xb4, 0x39,
  0x2c, 0x00, 0x00, 0x00, 0x73, 0x65, 0x71, 0x75, 0x65, 0x6e, 0x74, 0x69,
  0x61, 0x6c, 0x5f, 0x31, 0x2f, 0x63, 0x6f, 0x6e, 0x76, 0x32, 0x64, 0x5f,
  0x33, 0x2f, 0x42, 0x69, 0x61, 0x73, 0x41, 0x64, 0x64, 0x2f, 0x52, 0x65,
  0x61, 0x64, 0x56, 0x61, 0x72, 0x69, 0x61, 0x62, 0x6c, 0x65, 0x4f, 0x70,
  0x00, 0x00, 0x00, 0x00, 0x01, 0x00, 0x00, 0x00, 0x10, 0x00, 0x00, 0x00,
  0x42, 0xfe, 0xff, 0xff, 0x00, 0x00, 0x00, 0x01, 0x14, 0x00, 0x00, 0x00,
  0x30, 0x00, 0x00, 0x00, 0x06, 0x00, 0x00, 0x00, 0x00, 0x00, 0x00, 0x09,
  0x44, 0x00, 0x00, 0x00, 0xac, 0xfd, 0xff, 0xff, 0x08, 0x00, 0x00, 0x00,
  0x10, 0x00, 0x00, 0x00, 0x01, 0x00, 0x00, 0x00, 0x00, 0x00, 0x00, 0x00,
  0x00, 0x00, 0x00, 0x00, 0x01, 0x00, 0x00, 0x00, 0xfd, 0x69, 0x0a, 0x3b,
  0x1b, 0x00, 0x00, 0x00, 0x73, 0x65, 0x71, 0x75, 0x65, 0x6e, 0x74, 0x69,
  0x61, 0x6c, 0x5f, 0x31, 0x2f, 0x64, 0x65, 0x6e, 0x73, 0x65, 0x5f, 0x32,
  0x2f, 0x4d, 0x61, 0x74, 0x4d, 0x75, 0x6c, 0x00, 0x02, 0x00, 0x00, 0x00,
  0x10, 0x00, 0x00, 0x00, 0xf0, 0x00, 0x00, 0x00, 0xaa, 0xfe, 0xff, 0xff,
  0x00, 0x00, 0x00, 0x01, 0x14, 0x00, 0x00, 0x00, 0x34, 0x00, 0x00, 0x00,
  0x05, 0x00, 0x00, 0x00, 0x00, 0x00, 0x00, 0x02, 0x58, 0x00, 0x00, 0x00,
  0x14, 0xfe, 0xff, 0xff, 0x08, 0x00, 0x00, 0x00, 0x14, 0x00, 0x00, 0x00,
  0x01, 0x00, 0x00, 0x00, 0x00, 0x00, 0x00, 0x00, 0x00, 0x00, 0x00, 0x00,
  0x00, 0x00, 0x00, 0x00, 0x01, 0x00, 0x00, 0x00, 0x10, 0x1e, 0x99, 0x39,
  0x2b, 0x00, 0x00, 0x00, 0x73, 0x65, 0x71, 0x75, 0x65, 0x6e, 0x74, 0x69,
  0x61, 0x6c, 0x5f, 0x31, 0x2f, 0x64, 0x65, 0x6e, 0x73, 0x65, 0x5f, 0x32,
  0x2f, 0x42, 0x69, 0x61, 0x73, 0x41, 0x64, 0x64, 0x2f, 0x52, 0x65, 0x61,
  0x64, 0x56, 0x61, 0x72, 0x69, 0x61, 0x62, 0x6c, 0x65, 0x4f, 0x70, 0x00,
  0x01, 0x00, 0x00, 0x00, 0x10, 0x00, 0x00, 0x00, 0x22, 0xff, 0xff, 0xff,
  0x00, 0x00, 0x00, 0x01, 0x14, 0x00, 0x00, 0x00, 0x30, 0x00, 0x00, 0x00,
  0x04, 0x00, 0x00, 0x00, 0x00, 0x00, 0x00, 0x09, 0x44, 0x00, 0x00, 0x00,
  0x8c, 0xfe, 0xff, 0xff, 0x08, 0x00, 0x00, 0x00, 0x10, 0x00, 0x00, 0x00,
  0x01, 0x00, 0x00, 0x00, 0x00, 0x00, 0x00, 0x00, 0x00, 0x00, 0x00, 0x00,
  0x01, 0x00, 0x00, 0x00, 0x0f, 0xcd, 0x86, 0x3b, 0x1b, 0x00, 0x00, 0x00,
  0x73, 0x65, 0x71, 0x75, 0x65, 0x6e, 0x74, 0x69, 0x61, 0x6c, 0x5f, 0x31,
  0x2f, 0x64, 0x65, 0x6e, 0x73, 0x65, 0x5f, 0x33, 0x2f, 0x4d, 0x61, 0x74,
  0x4d, 0x75, 0x6c, 0x00, 0x02, 0x00, 0x00, 0x00, 0x05, 0x00, 0x00, 0x00,
  0x10, 0x00, 0x00, 0x00, 0x8a, 0xff, 0xff, 0xff, 0x00, 0x00, 0x00, 0x01,
  0x14, 0x00, 0x00, 0x00, 0x30, 0x00, 0x00, 0x00, 0x03, 0x00, 0x00, 0x00,
  0x00, 0x00, 0x00, 0x02, 0x54, 0x00, 0x00, 0x00, 0xf4, 0xfe, 0xff, 0xff,
  0x08, 0x00, 0x00, 0x00, 0x10, 0x00, 0x00, 0x00, 0x01, 0x00, 0x00, 0x00,
  0x00, 0x00, 0x00, 0x00, 0x00, 0x00, 0x00, 0x00, 0x01, 0x00, 0x00, 0x00,
  0x39, 0x50, 0xf2, 0x39, 0x2b, 0x00, 0x00, 0x00, 0x73, 0x65, 0x71, 0x75,
  0x65, 0x6e, 0x74, 0x69, 0x61, 0x6c, 0x5f, 0x31, 0x2f, 0x64, 0x65, 0x6e,
  0x73, 0x65, 0x5f, 0x33, 0x2f, 0x42, 0x69, 0x61, 0x73, 0x41, 0x64, 0x64,
  0x2f, 0x52, 0x65, 0x61, 0x64, 0x56, 0x61, 0x72, 0x69, 0x61, 0x62, 0x6c,
  0x65, 0x4f, 0x70, 0x00, 0x01, 0x00, 0x00, 0x00, 0x05, 0x00, 0x00, 0x00,
  0x00, 0x00, 0x16, 0x00, 0x1c, 0x00, 0x18, 0x00, 0x17, 0x00, 0x10, 0x00,
  0x0c, 0x00, 0x08, 0x00, 0x00, 0x00, 0x00, 0x00, 0x00, 0x00, 0x07, 0x00,
  0x16, 0x00, 0x00, 0x00, 0x00, 0x00, 0x00, 0x01, 0x18, 0x00, 0x00, 0x00,
  0x18, 0x00, 0x00, 0x00, 0x02, 0x00, 0x00, 0x00, 0x00, 0x00, 0x00, 0x02,
  0x30, 0x00, 0x00, 0x00, 0x04, 0x00, 0x04, 0x00, 0x04, 0x00, 0x00, 0x00,
  0x1c, 0x00, 0x00, 0x00, 0x73, 0x65, 0x71, 0x75, 0x65, 0x6e, 0x74, 0x69,
  0x61, 0x6c, 0x5f, 0x31, 0x2f, 0x66, 0x6c, 0x61, 0x74, 0x74, 0x65, 0x6e,
  0x5f, 0x31, 0x2f, 0x43, 0x6f, 0x6e, 0x73, 0x74, 0x00, 0x00, 0x00, 0x00,
  0x01, 0x00, 0x00, 0x00, 0x02, 0x00, 0x00, 0x00, 0x00, 0x00, 0x16, 0x00,
  0x20, 0x00, 0x1c, 0x00, 0x1b, 0x00, 0x14, 0x00, 0x10, 0x00, 0x0c, 0x00,
  0x00, 0x00, 0x00, 0x00, 0x08, 0x00, 0x07, 0x00, 0x16, 0x00, 0x00, 0x00,
  0x00, 0x00, 0x00, 0x01, 0x18, 0x00, 0x00, 0x00, 0x34, 0x00, 0x00, 0x00,
  0x50, 0x00, 0x00, 0x00, 0x01, 0x00, 0x00, 0x00, 0x00, 0x00, 0x00, 0x09,
  0x6c, 0x00, 0x00, 0x00, 0x04, 0x00, 0x00, 0x00, 0xff, 0xff, 0xff, 0xff,
  0x0a, 0x00, 0x00, 0x00, 0x12, 0x00, 0x00, 0x00, 0x01, 0x00, 0x00, 0x00,
  0x0c, 0x00, 0x0c, 0x00, 0x00, 0x00, 0x00, 0x00, 0x08, 0x00, 0x04, 0x00,
  0x0c, 0x00, 0x00, 0x00, 0x08, 0x00, 0x00, 0x00, 0x10, 0x00, 0x00, 0x00,
  0x01, 0x00, 0x00, 0x00, 0x80, 0xff, 0xff, 0xff, 0xff, 0xff, 0xff, 0xff,
  0x01, 0x00, 0x00, 0x00, 0xc9, 0xc8, 0xc8, 0x3e, 0x20, 0x00, 0x00, 0x00,
  0x73, 0x65, 0x72, 0x76, 0x69, 0x6e, 0x67, 0x5f, 0x64, 0x65, 0x66, 0x61,
  0x75, 0x6c, 0x74, 0x5f, 0x63, 0x6f, 0x6e, 0x76, 0x32, 0x64, 0x5f, 0x32,
  0x5f, 0x69, 0x6e, 0x70, 0x75, 0x74, 0x3a, 0x30, 0x00, 0x00, 0x00, 0x00,
  0x04, 0x00, 0x00, 0x00, 0x01, 0x00, 0x00, 0x00, 0x0a, 0x00, 0x00, 0x00,
  0x12, 0x00, 0x00, 0x00, 0x01, 0x00, 0x00, 0x00, 0x05, 0x00, 0x00, 0x00,
  0x68, 0x00, 0x00, 0x00, 0x48, 0x00, 0x00, 0x00, 0x38, 0x00, 0x00, 0x00,
  0x18, 0x00, 0x00, 0x00, 0x04, 0x00, 0x00, 0x00, 0xb8, 0xff, 0xff, 0xff,
  0x19, 0x00, 0x00, 0x00, 0x02, 0x00, 0x00, 0x00, 0x00, 0x00, 0x00, 0x19,
  0xc8, 0xff, 0xff, 0xff, 0x09, 0x00, 0x00, 0x00, 0x04, 0x00, 0x00, 0x00,
  0x00, 0x00, 0x00, 0x09, 0x0c, 0x00, 0x0c, 0x00, 0x0b, 0x00, 0x00, 0x00,
  0x00, 0x00, 0x04, 0x00, 0x0c, 0x00, 0x00, 0x00, 0x16, 0x00, 0x00, 0x00,
  0x00, 0x00, 0x00, 0x16, 0xf0, 0xff, 0xff, 0xff, 0x11, 0x00, 0x00, 0x00,
  0x02, 0x00, 0x00, 0x00, 0x00, 0x00, 0x00, 0x11, 0x0c, 0x00, 0x10, 0x00,
  0x0f, 0x00, 0x00, 0x00, 0x08, 0x00, 0x04, 0x00, 0x0c, 0x00, 0x00, 0x00,
  0x03, 0x00, 0x00, 0x00, 0x03, 0x00, 0x00, 0x00, 0x00, 0x00, 0x00, 0x03
};
const int model_TFLite_len = 14256;
