unsigned char model_linear_tflite[] = {
  0x1c, 0x00, 0x00, 0x00, 0x54, 0x46, 0x4c, 0x33, 0x14, 0x00, 0x20, 0x00,
  0x1c, 0x00, 0x18, 0x00, 0x14, 0x00, 0x10, 0x00, 0x0c, 0x00, 0x00, 0x00,
  0x08, 0x00, 0x04, 0x00, 0x14, 0x00, 0x00, 0x00, 0x1c, 0x00, 0x00, 0x00,
  0x90, 0x00, 0x00, 0x00, 0xe8, 0x00, 0x00, 0x00, 0x4c, 0x20, 0x00, 0x00,
  0x5c, 0x20, 0x00, 0x00, 0x6c, 0x29, 0x00, 0x00, 0x03, 0x00, 0x00, 0x00,
  0x01, 0x00, 0x00, 0x00, 0x10, 0x00, 0x00, 0x00, 0x00, 0x00, 0x0a, 0x00,
  0x10, 0x00, 0x0c, 0x00, 0x08, 0x00, 0x04, 0x00, 0x0a, 0x00, 0x00, 0x00,
  0x0c, 0x00, 0x00, 0x00, 0x1c, 0x00, 0x00, 0x00, 0x38, 0x00, 0x00, 0x00,
  0x0f, 0x00, 0x00, 0x00, 0x73, 0x65, 0x72, 0x76, 0x69, 0x6e, 0x67, 0x5f,
  0x64, 0x65, 0x66, 0x61, 0x75, 0x6c, 0x74, 0x00, 0x01, 0x00, 0x00, 0x00,
  0x04, 0x00, 0x00, 0x00, 0x98, 0xff, 0xff, 0xff, 0x0d, 0x00, 0x00, 0x00,
  0x04, 0x00, 0x00, 0x00, 0x07, 0x00, 0x00, 0x00, 0x64, 0x65, 0x6e, 0x73,
  0x65, 0x5f, 0x33, 0x00, 0x01, 0x00, 0x00, 0x00, 0x04, 0x00, 0x00, 0x00,
  0x92, 0xdf, 0xff, 0xff, 0x04, 0x00, 0x00, 0x00, 0x0b, 0x00, 0x00, 0x00,
  0x64, 0x65, 0x6e, 0x73, 0x65, 0x5f, 0x69, 0x6e, 0x70, 0x75, 0x74, 0x00,
  0x02, 0x00, 0x00, 0x00, 0x34, 0x00, 0x00, 0x00, 0x04, 0x00, 0x00, 0x00,
  0xdc, 0xff, 0xff, 0xff, 0x10, 0x00, 0x00, 0x00, 0x04, 0x00, 0x00, 0x00,
  0x13, 0x00, 0x00, 0x00, 0x43, 0x4f, 0x4e, 0x56, 0x45, 0x52, 0x53, 0x49,
  0x4f, 0x4e, 0x5f, 0x4d, 0x45, 0x54, 0x41, 0x44, 0x41, 0x54, 0x41, 0x00,
  0x08, 0x00, 0x0c, 0x00, 0x08, 0x00, 0x04, 0x00, 0x08, 0x00, 0x00, 0x00,
  0x0f, 0x00, 0x00, 0x00, 0x04, 0x00, 0x00, 0x00, 0x13, 0x00, 0x00, 0x00,
  0x6d, 0x69, 0x6e, 0x5f, 0x72, 0x75, 0x6e, 0x74, 0x69, 0x6d, 0x65, 0x5f,
  0x76, 0x65, 0x72, 0x73, 0x69, 0x6f, 0x6e, 0x00, 0x11, 0x00, 0x00, 0x00,
  0x60, 0x1f, 0x00, 0x00, 0x58, 0x1f, 0x00, 0x00, 0x34, 0x1f, 0x00, 0x00,
  0xd4, 0x1e, 0x00, 0x00, 0x84, 0x1e, 0x00, 0x00, 0x74, 0x1c, 0x00, 0x00,
  0xe4, 0x1b, 0x00, 0x00, 0xd4, 0x17, 0x00, 0x00, 0x44, 0x17, 0x00, 0x00,
  0xb4, 0x00, 0x00, 0x00, 0xac, 0x00, 0x00, 0x00, 0xa4, 0x00, 0x00, 0x00,
  0x9c, 0x00, 0x00, 0x00, 0x94, 0x00, 0x00, 0x00, 0x8c, 0x00, 0x00, 0x00,
  0x6c, 0x00, 0x00, 0x00, 0x04, 0x00, 0x00, 0x00, 0x4e, 0xe0, 0xff, 0xff,
  0x04, 0x00, 0x00, 0x00, 0x58, 0x00, 0x00, 0x00, 0x0c, 0x00, 0x00, 0x00,
  0x08, 0x00, 0x0e, 0x00, 0x08, 0x00, 0x04, 0x00, 0x08, 0x00, 0x00, 0x00,
  0x10, 0x00, 0x00, 0x00, 0x28, 0x00, 0x00, 0x00, 0x00, 0x00, 0x06, 0x00,
  0x08, 0x00, 0x04, 0x00, 0x06, 0x00, 0x00, 0x00, 0x04, 0x00, 0x00, 0x00,
  0x01, 0x00, 0x00, 0x00, 0xeb, 0x03, 0x00, 0x00, 0x00, 0x00, 0x0a, 0x00,
  0x10, 0x00, 0x0c, 0x00, 0x08, 0x00, 0x04, 0x00, 0x0a, 0x00, 0x00, 0x00,
  0x02, 0x00, 0x00, 0x00, 0x02, 0x00, 0x00, 0x00, 0x04, 0x00, 0x00, 0x00,
  0x06, 0x00, 0x00, 0x00, 0x32, 0x2e, 0x31, 0x33, 0x2e, 0x30, 0x00, 0x00,
  0xb2, 0xe0, 0xff, 0xff, 0x04, 0x00, 0x00, 0x00, 0x10, 0x00, 0x00, 0x00,
  0x31, 0x2e, 0x31, 0x34, 0x2e, 0x30, 0x00, 0x00, 0x00, 0x00, 0x00, 0x00,
  0x00, 0x00, 0x00, 0x00, 0x9c, 0xe0, 0xff, 0xff, 0xa0, 0xe0, 0xff, 0xff,
  0xa4, 0xe0, 0xff, 0xff, 0xa8, 0xe0, 0xff, 0xff, 0xac, 0xe0, 0xff, 0xff,
  0xe2, 0xe0, 0xff, 0xff, 0x04, 0x00, 0x00, 0x00, 0x80, 0x16, 0x00, 0x00,
  0xe8, 0xdf, 0x3e, 0x13, 0xf5, 0x1c, 0x32, 0xb3, 0xed, 0xb2, 0xaf, 0x14,
  0xdb, 0xba, 0xd6, 0xd1, 0xe2, 0xc6, 0xef, 0xce, 0xb9, 0xfc, 0xcf, 0x45,
  0x0f, 0x4c, 0xd7, 0xf4, 0x0f, 0xfe, 0x4f, 0x17, 0xb3, 0x4f, 0x3c, 0x04,
  0xba, 0xf4, 0x22, 0xfd, 0xd4, 0xd2, 0x10, 0xe4, 0x32, 0x52, 0xf4, 0x3c,
  0x01, 0xdf, 0xe0, 0xdc, 0x33, 0x50, 0xca, 0x4f, 0xcc, 0x24, 0xdb, 0x21,
  0x37, 0x26, 0x2c, 0x4f, 0xda, 0x37, 0xae, 0xc8, 0x21, 0xe9, 0xb6, 0xf7,
  0x3a, 0xcf, 0xda, 0x31, 0xb3, 0x28, 0xd3, 0xbd, 0x4b, 0x2e, 0xe2, 0xd3,
  0x34, 0xf4, 0xcb, 0x07, 0xc1, 0xda, 0x37, 0x36, 0x22, 0x30, 0x01, 0x3b,
  0xe8, 0x1a, 0xe1, 0x41, 0x10, 0x1f, 0x39, 0xd9, 0x1a, 0xbe, 0x43, 0x00,
  0x1b, 0xc1, 0xdf, 0xd1, 0x06, 0x0d, 0xd8, 0x2d, 0xd6, 0xd4, 0xfd, 0xb5,
  0xf7, 0xe5, 0xe6, 0xe9, 0x04, 0x35, 0x11, 0x1a, 0x18, 0xde, 0x4d, 0xd5,
  0xb8, 0xf7, 0x0b, 0xef, 0xb2, 0xbd, 0xe3, 0x03, 0xd0, 0xdb, 0xae, 0x14,
  0x40, 0x1e, 0x22, 0x2a, 0xfb, 0xe8, 0x26, 0xef, 0x44, 0xd9, 0x24, 0xe3,
  0x31, 0xcc, 0x27, 0x50, 0xed, 0x17, 0xf3, 0xc3, 0xdc, 0x33, 0xb5, 0xcf,
  0xd3, 0x3e, 0xf5, 0x51, 0x1a, 0xb4, 0xb7, 0xfd, 0x25, 0x0b, 0xb3, 0x04,
  0x4a, 0xe8, 0x25, 0xce, 0xf5, 0x29, 0xcc, 0x47, 0xd9, 0x33, 0xff, 0xe0,
  0x25, 0x41, 0x2a, 0xe7, 0xc2, 0x27, 0x01, 0x25, 0x3f, 0x05, 0xf6, 0x3e,
  0x25, 0x3a, 0xdd, 0xe3, 0xf0, 0x3d, 0xe4, 0xeb, 0x3a, 0x07, 0x08, 0xea,
  0xca, 0x2e, 0x4d, 0x38, 0xf0, 0xe4, 0xb3, 0xb3, 0x3b, 0xbd, 0xf2, 0x14,
  0xdc, 0xe2, 0x2d, 0x32, 0xc1, 0x31, 0xd2, 0x08, 0xee, 0x37, 0x47, 0xed,
  0x20, 0xb3, 0xaf, 0x0f, 0xea, 0xc1, 0xc1, 0xfb, 0x04, 0xee, 0x2d, 0x3a,
  0xd8, 0xb7, 0xf1, 0xb4, 0xe2, 0x13, 0x40, 0xd2, 0xf1, 0xb5, 0xcb, 0xd5,
  0x3f, 0x10, 0x3f, 0x46, 0xac, 0x34, 0x06, 0xf5, 0x45, 0xb8, 0x05, 0xf2,
  0xe3, 0x10, 0xda, 0xd2, 0x13, 0x2f, 0x21, 0xd4, 0xfc, 0xec, 0x11, 0xef,
  0x27, 0xca, 0xde, 0xb4, 0x2e, 0xdf, 0xb2, 0xf2, 0x38, 0xb8, 0x2c, 0x4c,
  0x0c, 0xec, 0xe4, 0x17, 0xce, 0x07, 0xd4, 0x4a, 0xc8, 0xc6, 0xe3, 0x14,
  0xbc, 0xd0, 0x3c, 0x45, 0xdf, 0xbb, 0x36, 0x01, 0xb5, 0xb5, 0xd2, 0xfe,
  0xee, 0xb7, 0xab, 0x46, 0xbb, 0x37, 0x22, 0x1c, 0x03, 0xb7, 0xfa, 0xca,
  0xe0, 0xdf, 0xc2, 0xb6, 0x4b, 0x37, 0xf7, 0x2f, 0x11, 0xf2, 0xb1, 0xd9,
  0xae, 0x27, 0x35, 0x4f, 0xc1, 0x3d, 0xb9, 0x08, 0xe8, 0xaa, 0x48, 0x20,
  0xd4, 0xc1, 0xad, 0xe5, 0x23, 0xec, 0x05, 0xd5, 0xcd, 0x46, 0xe5, 0xea,
  0xe9, 0x12, 0xf5, 0xf2, 0xbd, 0xb7, 0x0e, 0x07, 0xa9, 0xfc, 0xef, 0x47,
  0xf0, 0xc8, 0xe2, 0x53, 0x4e, 0x2f, 0xff, 0xe1, 0x10, 0xb7, 0xfe, 0x2e,
  0xae, 0x20, 0xac, 0xa8, 0xf3, 0x27, 0xe8, 0xb9, 0xe5, 0x3c, 0x2f, 0x13,
  0xc5, 0xe9, 0xb3, 0xb1, 0xff, 0x0e, 0x33, 0x28, 0x05, 0xbe, 0xb5, 0x2c,
  0x1d, 0xf9, 0xab, 0x47, 0x0f, 0xe5, 0x32, 0xd2, 0x1e, 0xf3, 0xb7, 0xdc,
  0x3b, 0xc1, 0xd3, 0xbc, 0x2b, 0x3b, 0x2c, 0xc3, 0xd0, 0xd5, 0xb8, 0x44,
  0xf5, 0x2f, 0xd3, 0xc0, 0xb3, 0xd4, 0x0b, 0xd9, 0x13, 0xd4, 0xf8, 0xc5,
  0xb6, 0x05, 0xd9, 0x44, 0x0b, 0xe1, 0xc4, 0xec, 0xf8, 0xdf, 0xd3, 0xce,
  0x19, 0x37, 0xf6, 0xec, 0x4d, 0xcb, 0xab, 0xef, 0xe8, 0xd6, 0xc4, 0x15,
  0xde, 0x3e, 0xdd, 0xc8, 0x3b, 0x20, 0xbb, 0xe7, 0xbc, 0x04, 0x29, 0x18,
  0xcb, 0x0d, 0x2a, 0xb8, 0x28, 0x39, 0x13, 0xf8, 0x35, 0x37, 0x12, 0xe6,
  0xdc, 0x3d, 0x06, 0xaf, 0xb6, 0xb3, 0xf1, 0xf5, 0xc3, 0x28, 0xb6, 0xca,
  0x35, 0xc4, 0x09, 0x26, 0xbd, 0xd1, 0xe3, 0x13, 0x21, 0x42, 0xf2, 0xfe,
  0x19, 0xab, 0xfc, 0xc0, 0xb1, 0x3e, 0x3f, 0xe2, 0xea, 0xe4, 0x4c, 0xee,
  0xde, 0xdf, 0x41, 0xae, 0xb3, 0xcc, 0xc1, 0xe6, 0xf3, 0xe1, 0xd9, 0xd2,
  0x09, 0xc5, 0xe6, 0x22, 0xd3, 0x00, 0x33, 0x0c, 0xff, 0x44, 0xd4, 0xd6,
  0xca, 0x4a, 0xbe, 0x15, 0x07, 0xdd, 0x0b, 0x42, 0xb2, 0x23, 0x3e, 0xe8,
  0xea, 0xf1, 0xfd, 0xbe, 0x28, 0x26, 0x0f, 0x34, 0x15, 0xd7, 0x38, 0xfe,
  0xf6, 0x42, 0xe8, 0x40, 0xcf, 0x46, 0xcf, 0x0f, 0x06, 0xda, 0x39, 0xfb,
  0x51, 0x3d, 0x22, 0xcf, 0xf6, 0xc3, 0xf7, 0xe2, 0x50, 0xb8, 0x12, 0x1e,
  0x34, 0xd5, 0xf3, 0xea, 0xc5, 0xce, 0xca, 0x07, 0xd4, 0x3f, 0x10, 0xcb,
  0x2b, 0x10, 0x17, 0x0e, 0x06, 0x40, 0x4d, 0xf5, 0xd6, 0x19, 0x07, 0x22,
  0x43, 0x0f, 0xfc, 0xe2, 0xf3, 0x36, 0xe8, 0xf5, 0x31, 0xe2, 0x29, 0x36,
  0x13, 0xd6, 0xda, 0xef, 0xf1, 0xe2, 0x26, 0x1a, 0xf3, 0xe0, 0x25, 0xb3,
  0x18, 0xb9, 0xba, 0xfa, 0x13, 0xd8, 0xca, 0xc2, 0xf1, 0x14, 0xca, 0x24,
  0xe7, 0xb7, 0xc2, 0x1c, 0x0e, 0x02, 0x25, 0xef, 0x0e, 0xdf, 0x2e, 0xc8,
  0xcb, 0x30, 0x11, 0x2c, 0x00, 0xcd, 0x2b, 0xe0, 0xe5, 0x05, 0xc9, 0xae,
  0x19, 0xff, 0xd7, 0x01, 0xf1, 0xcb, 0xfe, 0xee, 0x33, 0x02, 0xe8, 0x1b,
  0xed, 0x3e, 0xe5, 0xd0, 0xbc, 0x02, 0x44, 0xc1, 0xef, 0xf1, 0x46, 0xdb,
  0x19, 0xad, 0xa8, 0x1e, 0xc1, 0x22, 0x08, 0x1f, 0x20, 0x12, 0x17, 0xc4,
  0x4f, 0xd4, 0x4b, 0xf4, 0xe3, 0x0a, 0x16, 0x00, 0xdd, 0xd7, 0x37, 0xbb,
  0x3f, 0x18, 0x4e, 0xe9, 0x12, 0xf8, 0x07, 0xd6, 0x44, 0x2b, 0xbc, 0xd7,
  0xf2, 0x09, 0xd8, 0x1e, 0x16, 0xc7, 0x31, 0xfc, 0xd5, 0x05, 0xdc, 0xbb,
  0xd2, 0xfc, 0x5d, 0x50, 0x27, 0xe1, 0xb9, 0xcf, 0x2c, 0x05, 0x22, 0xb8,
  0x50, 0xbe, 0xee, 0x2e, 0xc9, 0x41, 0x14, 0x2f, 0x56, 0xf7, 0x26, 0xe3,
  0x2d, 0xd4, 0x1e, 0xb4, 0x42, 0x05, 0x0c, 0x29, 0xea, 0xfc, 0x35, 0x16,
  0x49, 0xfd, 0x09, 0xe9, 0xfe, 0xec, 0xf1, 0xcf, 0xf1, 0xdc, 0xce, 0xff,
  0xe1, 0xd3, 0xcf, 0x15, 0xde, 0x47, 0x0a, 0x0e, 0x57, 0x3f, 0x12, 0x0e,
  0x1d, 0xb4, 0xbd, 0xf4, 0x1a, 0xaa, 0x4c, 0xa4, 0xd3, 0xd4, 0xdd, 0xac,
  0x31, 0xed, 0xea, 0x61, 0x06, 0xde, 0x25, 0xe0, 0x22, 0xea, 0x1e, 0xe0,
  0x11, 0x03, 0xee, 0xe8, 0x21, 0x24, 0xd5, 0xde, 0x51, 0x5b, 0xa5, 0x16,
  0xdd, 0xf2, 0x2d, 0xd3, 0x15, 0xf5, 0xd3, 0xef, 0x11, 0xe7, 0xfa, 0xd6,
  0xea, 0x14, 0x63, 0x35, 0x3d, 0x4b, 0x10, 0xdb, 0xce, 0x0a, 0xfd, 0xd4,
  0xff, 0xe8, 0x00, 0xbf, 0x4c, 0xce, 0x18, 0xba, 0xf8, 0xe1, 0x12, 0xe9,
  0xc4, 0xf3, 0x00, 0x47, 0xb6, 0x28, 0x0e, 0x05, 0x02, 0xc3, 0x02, 0x4b,
  0x3c, 0x44, 0x0e, 0xfa, 0x1b, 0xad, 0x22, 0x36, 0xf3, 0xc8, 0xc5, 0xec,
  0x1d, 0xe9, 0x31, 0xcc, 0xdb, 0xe6, 0x46, 0xad, 0xeb, 0xba, 0x11, 0xf1,
  0xc7, 0x3b, 0xfd, 0x32, 0x0d, 0xcd, 0xec, 0x11, 0xf4, 0xf4, 0xb6, 0x10,
  0xf7, 0x21, 0x16, 0xc4, 0x00, 0xcd, 0xf8, 0x20, 0x36, 0xc0, 0x1f, 0x1b,
  0xb2, 0xea, 0x34, 0x25, 0xfb, 0xc5, 0xfe, 0x45, 0x07, 0xad, 0xdd, 0x3a,
  0xe4, 0xaf, 0x0f, 0xaa, 0x1b, 0xe0, 0x10, 0xe6, 0x49, 0x43, 0xe0, 0xdb,
  0x29, 0x3d, 0x0a, 0xaf, 0x32, 0x4b, 0x1b, 0xf4, 0x36, 0xf6, 0xf0, 0x1d,
  0x13, 0xc5, 0xca, 0xcd, 0xd3, 0xf3, 0x0b, 0x17, 0x21, 0x1b, 0xb8, 0x02,
  0x4c, 0xc9, 0xe3, 0xd1, 0xa9, 0xca, 0xd5, 0xf8, 0xd0, 0x1e, 0x12, 0x39,
  0xdf, 0xcd, 0xad, 0xb4, 0xc0, 0xf9, 0x1b, 0xe6, 0x01, 0xd7, 0x09, 0x42,
  0x23, 0xb3, 0xe4, 0x1b, 0x32, 0x12, 0x12, 0xf7, 0x20, 0xef, 0x41, 0xab,
  0xf2, 0x2c, 0x29, 0x21, 0xfd, 0x44, 0x0f, 0xbc, 0x3a, 0x1b, 0x0d, 0xbf,
  0xe6, 0xf3, 0xdb, 0xa9, 0xa7, 0x41, 0xd5, 0xc5, 0x47, 0x2c, 0x3d, 0xe7,
  0xea, 0xaa, 0x34, 0xdf, 0x41, 0xd4, 0xfe, 0xdf, 0x09, 0xe2, 0x44, 0xec,
  0xab, 0xc9, 0x4a, 0x40, 0xac, 0x32, 0xf3, 0x12, 0x36, 0x09, 0xb4, 0xaa,
  0xfc, 0x07, 0xe6, 0x4d, 0xf9, 0xce, 0x16, 0xcb, 0xd7, 0xa9, 0x45, 0xc4,
  0xd1, 0xc9, 0x3a, 0x18, 0x41, 0x2b, 0x07, 0xb6, 0x22, 0xdb, 0x03, 0x24,
  0xe1, 0xef, 0xd1, 0x35, 0xcb, 0xb3, 0x14, 0x2c, 0xc1, 0x4f, 0xc4, 0x1a,
  0x18, 0x30, 0x2a, 0xc9, 0x23, 0xc7, 0x26, 0x19, 0x26, 0x40, 0xdb, 0xaa,
  0xb5, 0x10, 0x3a, 0xe4, 0xdf, 0x4c, 0xcb, 0x2b, 0x35, 0x10, 0xab, 0x3a,
  0x03, 0x2b, 0xf8, 0xe9, 0xaa, 0x37, 0x20, 0xfa, 0xb7, 0x24, 0xe5, 0xad,
  0xb7, 0xc5, 0x37, 0xe4, 0xd5, 0xbd, 0x30, 0xb7, 0x18, 0x14, 0x1c, 0xbf,
  0xfe, 0xbf, 0x2c, 0x19, 0x4c, 0xe6, 0xe8, 0x10, 0x2d, 0x39, 0x35, 0x0d,
  0x3c, 0x2d, 0x2b, 0x06, 0x0b, 0x49, 0xc3, 0x34, 0xe7, 0xdd, 0xf3, 0xb5,
  0x46, 0xd2, 0x28, 0xc7, 0xf0, 0x4a, 0x2a, 0xb7, 0x24, 0x14, 0xd4, 0xb0,
  0x2f, 0x21, 0xde, 0xc3, 0xee, 0xfd, 0xbc, 0xfd, 0xf8, 0xe4, 0x3b, 0xab,
  0x00, 0x4d, 0x28, 0xe5, 0xdb, 0xa8, 0x3d, 0xed, 0xe6, 0xf4, 0x14, 0x1d,
  0xb4, 0xf9, 0x0e, 0xe1, 0xdf, 0xc2, 0xe2, 0xce, 0xcc, 0xc1, 0x14, 0x3e,
  0xe8, 0xc2, 0x3d, 0xc4, 0x32, 0xd7, 0x05, 0x11, 0xdb, 0xdc, 0x39, 0x06,
  0x4a, 0x0b, 0x1d, 0xc9, 0x05, 0xe9, 0x03, 0x16, 0xc7, 0xfd, 0x13, 0x00,
  0x06, 0x22, 0xc2, 0xab, 0xfd, 0xfb, 0x28, 0xbf, 0xea, 0x0f, 0xb3, 0xf9,
  0xbc, 0x01, 0x34, 0x27, 0xfa, 0x1c, 0x39, 0xec, 0xc5, 0xdb, 0xb8, 0xed,
  0x09, 0xed, 0xff, 0x20, 0xef, 0xf9, 0xbc, 0x31, 0xbd, 0xc6, 0x35, 0x1a,
  0xb5, 0xba, 0x1f, 0x0e, 0x32, 0xb9, 0x18, 0x10, 0xc6, 0xbb, 0x0b, 0xda,
  0xf6, 0x43, 0x23, 0xd9, 0xda, 0x3b, 0x4c, 0x47, 0x16, 0xb5, 0xc5, 0xcd,
  0x11, 0x24, 0xfd, 0x41, 0x4b, 0x30, 0x39, 0x19, 0xea, 0xc8, 0xc2, 0x4c,
  0xcf, 0x43, 0x37, 0x29, 0xe0, 0xd1, 0xb1, 0xf3, 0x2f, 0xdd, 0xea, 0xea,
  0x42, 0xd3, 0x2f, 0xe9, 0x26, 0x0b, 0xbf, 0xe0, 0xf3, 0xba, 0xf5, 0x0e,
  0x48, 0xbc, 0x15, 0x09, 0x20, 0x30, 0xb8, 0xb7, 0x3d, 0x37, 0x10, 0xad,
  0xfc, 0x11, 0xe7, 0x18, 0xcc, 0xb9, 0x25, 0xcc, 0xd5, 0xf2, 0x1d, 0x2c,
  0x28, 0xd2, 0x04, 0xf0, 0xf8, 0xde, 0xc9, 0x1f, 0xda, 0x03, 0xcb, 0x44,
  0x24, 0xb9, 0xf3, 0xbf, 0x28, 0x11, 0x31, 0xc8, 0xe2, 0xd0, 0x1c, 0xcb,
  0x19, 0x22, 0x43, 0xd5, 0x31, 0x0c, 0xac, 0xe7, 0xc2, 0xac, 0x0e, 0xd1,
  0xe7, 0xd0, 0x02, 0xeb, 0x0a, 0x39, 0xa8, 0x0a, 0x03, 0x21, 0x44, 0xcc,
  0xab, 0x1e, 0xec, 0x45, 0xf5, 0x41, 0xfd, 0x14, 0xc8, 0x30, 0xce, 0x08,
  0xd7, 0xfa, 0xf6, 0x17, 0xfd, 0x04, 0xf7, 0xf7, 0x37, 0xd1, 0xb4, 0x48,
  0x0b, 0x17, 0x3a, 0x1f, 0x15, 0xd3, 0xaf, 0x48, 0x06, 0xdd, 0x35, 0xda,
  0xf6, 0x1f, 0x3a, 0xc7, 0x4f, 0x38, 0xda, 0x1e, 0x1c, 0xe2, 0xdf, 0xf1,
  0xec, 0xd7, 0x16, 0x50, 0x07, 0x29, 0x40, 0xd7, 0x0a, 0x39, 0xc0, 0x21,
  0x06, 0x4c, 0xfc, 0xf2, 0xda, 0xcd, 0x07, 0x15, 0x2b, 0x06, 0xf0, 0xb9,
  0x12, 0xab, 0xc2, 0xe3, 0xc0, 0x27, 0xeb, 0xab, 0x06, 0xf9, 0xcf, 0xb0,
  0xfc, 0xf7, 0xbd, 0x37, 0xfc, 0x0b, 0x2a, 0xb3, 0xdc, 0xf5, 0xf0, 0x3e,
  0x20, 0xde, 0x2e, 0x47, 0x28, 0xdc, 0xb2, 0x05, 0x3b, 0x05, 0x35, 0xec,
  0xdf, 0xad, 0xd1, 0xed, 0x0c, 0xb2, 0x32, 0x0a, 0x0e, 0x31, 0xc3, 0x07,
  0x21, 0xfc, 0xd9, 0xf1, 0xfa, 0x26, 0x43, 0x28, 0x04, 0xc1, 0x0a, 0x12,
  0x4d, 0xd1, 0xed, 0x15, 0xae, 0xde, 0xbb, 0x24, 0xdb, 0xb5, 0xca, 0x20,
  0xc7, 0xc5, 0x39, 0x27, 0xb3, 0xfd, 0x2e, 0xed, 0x43, 0x45, 0x45, 0x1c,
  0x23, 0x4c, 0x2c, 0xc8, 0x16, 0xbd, 0x3b, 0x0d, 0x2d, 0x4b, 0xf0, 0xf4,
  0x47, 0x26, 0xcf, 0xef, 0xc3, 0xe9, 0x2f, 0x31, 0xdc, 0xab, 0xac, 0xd4,
  0x02, 0xdf, 0xdf, 0xd6, 0xe5, 0xa1, 0xb2, 0xef, 0x99, 0xc7, 0x3b, 0x14,
  0xde, 0x2d, 0x33, 0x2e, 0x11, 0xe8, 0x0c, 0x01, 0xe7, 0xf5, 0xa2, 0xb2,
  0x01, 0x11, 0xc7, 0xf4, 0x36, 0x5b, 0x13, 0x44, 0xa2, 0xaa, 0x21, 0x4c,
  0x0c, 0x0b, 0x36, 0x2b, 0x22, 0xd0, 0x1c, 0xf1, 0x11, 0xb8, 0xc0, 0x10,
  0xfd, 0x1a, 0xe3, 0xd0, 0x51, 0xb5, 0x50, 0xca, 0x06, 0x22, 0xe7, 0xb9,
  0x3e, 0xf3, 0xcb, 0xd5, 0x3f, 0x4c, 0xd7, 0xfd, 0xc9, 0xc0, 0xd3, 0x04,
  0xeb, 0x04, 0x3e, 0xca, 0xca, 0x1d, 0xe2, 0x00, 0xcd, 0x49, 0x1b, 0xed,
  0xcd, 0x23, 0xe6, 0xeb, 0x4f, 0x19, 0x31, 0x05, 0xf4, 0xe8, 0xd4, 0xf6,
  0x0a, 0xc1, 0xb4, 0x2d, 0x1e, 0x49, 0x5a, 0x2f, 0x0c, 0x2b, 0x1a, 0x31,
  0x3d, 0xed, 0x11, 0x13, 0xc1, 0xf8, 0x2e, 0xf8, 0xa6, 0xf4, 0xf6, 0xc3,
  0xee, 0xc3, 0xb9, 0xe0, 0x0a, 0x41, 0x1f, 0xea, 0x20, 0xcf, 0x06, 0xfb,
  0xbe, 0xc7, 0x06, 0xbc, 0x49, 0x27, 0x2a, 0x44, 0xf7, 0x05, 0xf9, 0x1f,
  0xce, 0x03, 0xd9, 0x20, 0xfa, 0xfe, 0xc6, 0xea, 0x05, 0x4e, 0x2b, 0x4a,
  0x58, 0x46, 0xf3, 0xa0, 0xb2, 0x42, 0x0d, 0x5e, 0xc6, 0x31, 0xe6, 0xc0,
  0xec, 0xca, 0x99, 0x0f, 0x26, 0x0a, 0x33, 0xd6, 0xec, 0x12, 0x42, 0x37,
  0x07, 0xdf, 0x4e, 0xbe, 0x22, 0xc1, 0xbb, 0x45, 0xf7, 0xed, 0x03, 0xf3,
  0xd1, 0x52, 0xb6, 0xe4, 0xce, 0xda, 0x17, 0xd7, 0x09, 0x32, 0x20, 0xee,
  0xb4, 0x0f, 0xd7, 0x4e, 0xdd, 0xf6, 0xb3, 0x12, 0x0b, 0x44, 0x15, 0x2d,
  0x36, 0x28, 0xd0, 0xae, 0xcf, 0xe2, 0xcd, 0xfa, 0xc4, 0xb4, 0xd0, 0xb8,
  0x37, 0xe8, 0x43, 0xe8, 0x02, 0xda, 0x46, 0xf5, 0x24, 0xd1, 0xdf, 0x04,
  0xb6, 0xe1, 0x48, 0xf9, 0x45, 0xbb, 0x2b, 0xf0, 0xd3, 0x4e, 0x1c, 0xe6,
  0xfe, 0x1e, 0x22, 0xc0, 0xb2, 0xd2, 0xdd, 0x22, 0xf1, 0xf9, 0xe9, 0xd1,
  0xfe, 0x0b, 0x18, 0xef, 0x0a, 0xaf, 0xd9, 0xee, 0x19, 0x1a, 0xd6, 0xfe,
  0x3d, 0x45, 0x45, 0xef, 0xb4, 0xb0, 0x20, 0xcb, 0x00, 0x23, 0x10, 0xed,
  0x11, 0xfe, 0x0d, 0x19, 0x05, 0xeb, 0xec, 0x24, 0xdc, 0x0f, 0xb8, 0xe8,
  0x33, 0xee, 0xbc, 0xdf, 0xc8, 0xc3, 0xd2, 0xf6, 0x51, 0x15, 0x49, 0xee,
  0x4e, 0xbe, 0x08, 0xe8, 0x30, 0xd5, 0xe1, 0x53, 0xee, 0xe1, 0x3e, 0xf3,
  0x06, 0xee, 0x29, 0xb2, 0xe0, 0x4a, 0x23, 0xd2, 0xd1, 0x47, 0x1c, 0xbc,
  0xc3, 0xb8, 0xf6, 0xe8, 0xeb, 0x53, 0xdf, 0x27, 0xeb, 0xad, 0xf4, 0xcb,
  0x17, 0xf1, 0x35, 0xae, 0x0b, 0xd9, 0xcb, 0x0b, 0xd0, 0x31, 0x39, 0xf9,
  0xc1, 0x01, 0xdc, 0xd2, 0x12, 0x05, 0xcc, 0xf9, 0x02, 0xf1, 0xfa, 0x03,
  0xc9, 0x2d, 0x0d, 0x45, 0xc2, 0xe8, 0x2a, 0x05, 0xe5, 0xe2, 0x1e, 0xe2,
  0x1c, 0xbf, 0x50, 0x2a, 0xaf, 0x3d, 0x0b, 0xb7, 0x0d, 0xb4, 0xc1, 0x05,
  0x3a, 0xd9, 0xed, 0x26, 0xbd, 0xef, 0xd8, 0xc5, 0x1f, 0x0b, 0x3f, 0xe2,
  0x31, 0xc0, 0x35, 0x3e, 0x44, 0x4e, 0xe4, 0x21, 0xcd, 0xd2, 0x29, 0x33,
  0xd1, 0x10, 0x35, 0x01, 0xbc, 0x3c, 0x4d, 0xd7, 0x1c, 0xdd, 0xe9, 0x32,
  0xf1, 0xfb, 0x44, 0xd9, 0xf4, 0xc9, 0x5f, 0x3b, 0x03, 0x46, 0x0d, 0x24,
  0xf0, 0xfc, 0x27, 0x2e, 0x1a, 0x17, 0x58, 0xd2, 0x0a, 0xb2, 0x05, 0xe4,
  0x6a, 0x16, 0x59, 0x4b, 0x23, 0x2f, 0x05, 0xf1, 0xb0, 0xf8, 0xb1, 0xf5,
  0x43, 0x4b, 0x1f, 0xd3, 0xe0, 0xf4, 0x5c, 0x51, 0x19, 0x1d, 0x05, 0x3a,
  0x0f, 0xe0, 0xb7, 0x32, 0xca, 0xb4, 0x2a, 0x69, 0x00, 0xe8, 0x4a, 0xf3,
  0xdc, 0x14, 0x54, 0x4b, 0x22, 0x39, 0x43, 0xd6, 0xd4, 0x52, 0xe5, 0x00,
  0xdd, 0xde, 0x16, 0x12, 0x42, 0x4c, 0x3b, 0xc5, 0x06, 0x4f, 0x06, 0xe2,
  0x3c, 0xf7, 0xe2, 0xb2, 0x2f, 0xbb, 0x22, 0xde, 0xb6, 0x11, 0x3e, 0xb7,
  0x10, 0x4b, 0xf5, 0xdb, 0xff, 0xba, 0xc6, 0xe4, 0xbc, 0xf7, 0x12, 0xf3,
  0xb2, 0xc7, 0x13, 0xd9, 0xd9, 0xd2, 0xed, 0x25, 0xf6, 0xd4, 0x42, 0xf7,
  0x06, 0x42, 0xcf, 0x41, 0x4b, 0x0a, 0xc9, 0xaf, 0xae, 0xfa, 0xcf, 0xe9,
  0xf2, 0xcc, 0x36, 0x47, 0x53, 0xbf, 0x3b, 0xba, 0xfa, 0x3a, 0x51, 0x43,
  0xe8, 0xe1, 0xe1, 0x3c, 0x2a, 0x40, 0xf4, 0x28, 0x36, 0x17, 0xf7, 0xae,
  0x42, 0xb6, 0xbe, 0x0d, 0xd4, 0xcf, 0xd1, 0xd5, 0x35, 0x4d, 0x32, 0x37,
  0x28, 0x1f, 0xbb, 0xcd, 0xf9, 0xf5, 0xe5, 0xc9, 0x30, 0x0c, 0xd7, 0x34,
  0xed, 0xbe, 0x13, 0xf8, 0xe8, 0x2d, 0x4b, 0x0f, 0x0f, 0xd4, 0xfd, 0xbf,
  0x2d, 0x1d, 0x04, 0xfb, 0x0f, 0xb9, 0x35, 0xd4, 0xc3, 0x09, 0xf5, 0x25,
  0x3f, 0xda, 0xc1, 0x0d, 0x35, 0xb7, 0xb9, 0x43, 0xce, 0x0e, 0x38, 0xfa,
  0xc3, 0xe9, 0x15, 0x0c, 0x39, 0xfd, 0x14, 0xf8, 0xd5, 0xe9, 0xf9, 0x1e,
  0xe8, 0x28, 0xd3, 0x02, 0xe3, 0x28, 0x1b, 0xe6, 0xc3, 0x00, 0x19, 0xfa,
  0x19, 0xbb, 0xee, 0x38, 0xf4, 0x0b, 0xb6, 0xc1, 0x10, 0x2b, 0xb9, 0x13,
  0x47, 0xb4, 0x4c, 0xf3, 0x00, 0x29, 0xc7, 0xb0, 0x42, 0x34, 0xfc, 0x01,
  0xfc, 0xd1, 0x00, 0xdb, 0x01, 0x39, 0x42, 0xf9, 0x47, 0x11, 0xf8, 0x26,
  0x50, 0x0d, 0x2c, 0x17, 0x35, 0xef, 0xba, 0x0e, 0xbe, 0xe1, 0x41, 0xfa,
  0xd2, 0xe2, 0xfa, 0xd1, 0xba, 0xaa, 0x39, 0xe4, 0xa6, 0xfb, 0x52, 0xde,
  0x4f, 0xee, 0x2d, 0xad, 0x0d, 0x04, 0xbd, 0x37, 0x1f, 0x37, 0xcd, 0x1d,
  0x23, 0xf6, 0xe0, 0xe1, 0x2f, 0xb0, 0xbe, 0xb4, 0x08, 0xbe, 0xea, 0xa9,
  0x0e, 0x20, 0xae, 0xf1, 0x28, 0x42, 0xc8, 0xab, 0xe9, 0x11, 0xd8, 0xbd,
  0x2a, 0xac, 0x3d, 0x41, 0xf1, 0xfc, 0xcd, 0xda, 0xee, 0x0f, 0x2e, 0x27,
  0xef, 0x0e, 0x3b, 0xb4, 0x15, 0xf6, 0x21, 0x25, 0x33, 0xd3, 0x2b, 0x0d,
  0x1e, 0x23, 0x02, 0xbd, 0x3d, 0xf5, 0xfd, 0xad, 0xf2, 0xbc, 0xe6, 0x30,
  0x2e, 0x48, 0xe1, 0xc3, 0x28, 0x32, 0x02, 0x49, 0xee, 0xc9, 0xd5, 0x25,
  0xf0, 0xc0, 0xe9, 0x2e, 0x48, 0xdf, 0xb2, 0xb3, 0x2e, 0xe8, 0x10, 0x29,
  0x34, 0xed, 0x22, 0xad, 0xbb, 0x38, 0xf1, 0x0f, 0xd7, 0x49, 0xfc, 0xe1,
  0x07, 0x4e, 0x0e, 0xe8, 0x12, 0x2a, 0xb5, 0xd4, 0xda, 0x37, 0x1e, 0xd8,
  0x39, 0x18, 0x01, 0x05, 0x4d, 0xb2, 0x19, 0x01, 0x12, 0xc1, 0x43, 0x12,
  0xcf, 0xac, 0x42, 0x41, 0x0c, 0xcc, 0xf6, 0xf4, 0xf0, 0x2c, 0x41, 0xf7,
  0x4f, 0x50, 0x16, 0xd8, 0x45, 0xc9, 0x2f, 0x08, 0xdc, 0xd1, 0x46, 0xc7,
  0xd4, 0xac, 0xf7, 0x4a, 0x3c, 0x04, 0x28, 0x09, 0xad, 0x4a, 0xfb, 0xb3,
  0xcd, 0x36, 0xa9, 0x02, 0xd3, 0xe8, 0xe6, 0xdf, 0x32, 0xec, 0xfa, 0xb6,
  0xc1, 0x17, 0x34, 0xf1, 0xc4, 0x1d, 0x30, 0xe3, 0xd4, 0x0e, 0xf6, 0xde,
  0xc7, 0x30, 0xbe, 0x2d, 0x43, 0xda, 0xe3, 0x4c, 0x32, 0xdd, 0x44, 0xe1,
  0xfe, 0x30, 0x0d, 0xda, 0xa4, 0x96, 0xe0, 0x00, 0x21, 0x2a, 0x52, 0xbd,
  0xba, 0xf7, 0xe8, 0x3b, 0x41, 0x26, 0xf1, 0xf9, 0x46, 0xcc, 0x25, 0xef,
  0x4b, 0xfb, 0x29, 0xc4, 0x41, 0xcd, 0xc7, 0xd9, 0x4d, 0x1b, 0x11, 0xb5,
  0xf5, 0x47, 0xb8, 0xd3, 0x28, 0xc2, 0x30, 0x04, 0xf5, 0xe1, 0x13, 0xc6,
  0x52, 0x2e, 0x2d, 0xf8, 0xdf, 0xaf, 0xe7, 0x5f, 0x4d, 0x52, 0x37, 0xab,
  0x49, 0x08, 0x2f, 0xea, 0xb8, 0x1e, 0xd1, 0x13, 0x0f, 0x39, 0x27, 0xb2,
  0xc4, 0x15, 0xd4, 0xfc, 0xbb, 0xdf, 0xe3, 0xba, 0x1b, 0xf8, 0x07, 0xec,
  0x09, 0x19, 0x3c, 0x20, 0x49, 0x1d, 0x43, 0x53, 0x15, 0xce, 0x27, 0xa7,
  0xea, 0x9d, 0x1f, 0x1f, 0x3d, 0xeb, 0xb9, 0xb8, 0xbd, 0x06, 0xf1, 0x45,
  0xf2, 0xcd, 0xfc, 0xf9, 0xbe, 0xc2, 0xcb, 0xfd, 0xa8, 0xb5, 0x46, 0xf2,
  0xec, 0x46, 0xc8, 0xb8, 0x18, 0xdb, 0xb5, 0x32, 0x2e, 0x3b, 0x1e, 0x20,
  0xc5, 0x3d, 0xda, 0x10, 0xbc, 0xec, 0x3a, 0xc1, 0xb6, 0xcb, 0x13, 0xea,
  0x10, 0x52, 0x3a, 0x22, 0xef, 0x4d, 0x43, 0x50, 0xd0, 0x52, 0xdd, 0x06,
  0xb0, 0x27, 0xb6, 0xed, 0x2c, 0x2a, 0x37, 0xe5, 0x2e, 0x1e, 0xca, 0xfb,
  0x1b, 0xe9, 0xce, 0x33, 0x52, 0x36, 0xcd, 0xc0, 0xdf, 0xbc, 0x11, 0x02,
  0xca, 0x37, 0xdc, 0xf4, 0x11, 0x1b, 0x3a, 0x26, 0xe2, 0xf3, 0xf4, 0x27,
  0x0f, 0xdf, 0x21, 0x0b, 0x27, 0x41, 0x10, 0xf2, 0x0c, 0x0b, 0xbd, 0x19,
  0x39, 0x18, 0x2f, 0x52, 0x12, 0xfb, 0xa1, 0xf9, 0xf2, 0x49, 0x22, 0x55,
  0xbf, 0x09, 0x17, 0x05, 0x2d, 0xc2, 0x30, 0x2f, 0x06, 0xe7, 0xfb, 0x3e,
  0x37, 0x07, 0x1c, 0xce, 0x08, 0xb2, 0x05, 0x4e, 0x24, 0x15, 0xd1, 0xd5,
  0x60, 0x06, 0x07, 0xf7, 0x4c, 0x0a, 0x32, 0xe3, 0xa1, 0xbe, 0x24, 0x3e,
  0x04, 0x24, 0x2f, 0xb6, 0x19, 0x1d, 0x5e, 0x19, 0x25, 0x38, 0x2a, 0xd8,
  0xbc, 0xa2, 0xdb, 0x1b, 0x3c, 0xe1, 0x0d, 0x73, 0xb9, 0x02, 0x41, 0xca,
  0x09, 0x12, 0x1c, 0xb9, 0x31, 0xcb, 0xc4, 0x43, 0xa7, 0x0b, 0xd3, 0x20,
  0xe2, 0x3b, 0x30, 0xcb, 0x09, 0xa0, 0x43, 0x53, 0x76, 0xb4, 0xcc, 0xa7,
  0x3b, 0xd3, 0xed, 0x48, 0x46, 0x5d, 0x44, 0xf9, 0x1f, 0xce, 0x27, 0xd4,
  0x43, 0x5d, 0xd3, 0xae, 0x2a, 0xce, 0xde, 0x1c, 0x1d, 0x4d, 0x37, 0x5b,
  0xf3, 0x05, 0xff, 0xf4, 0xde, 0x23, 0x0c, 0xd7, 0xe6, 0x18, 0xea, 0x4a,
  0xff, 0xce, 0x45, 0xb1, 0xbc, 0xc5, 0x07, 0x0a, 0xb8, 0xd2, 0x0f, 0x55,
  0xc1, 0xaf, 0x31, 0x46, 0x26, 0x2c, 0x45, 0xe5, 0x1f, 0xcc, 0x27, 0x1e,
  0xcf, 0xbf, 0xdb, 0x0b, 0x05, 0x54, 0x01, 0x2a, 0x30, 0x51, 0x45, 0xce,
  0xe0, 0x43, 0xec, 0x2e, 0xdd, 0x24, 0x38, 0xaa, 0xe7, 0x37, 0x04, 0x1f,
  0x24, 0x34, 0x2e, 0xb1, 0xbe, 0x41, 0x14, 0x1f, 0xf6, 0xc0, 0xda, 0xf0,
  0x05, 0x30, 0xed, 0xe7, 0x69, 0x1a, 0xbc, 0x52, 0x54, 0x20, 0x30, 0x4c,
  0xd9, 0x0d, 0xbd, 0xed, 0xe9, 0xc6, 0x3e, 0xde, 0xd7, 0x55, 0xe9, 0x32,
  0xe5, 0xe9, 0x6a, 0xba, 0x3b, 0xc0, 0x55, 0x37, 0x16, 0xf1, 0x05, 0xd3,
  0x50, 0xf6, 0x12, 0xe2, 0x4f, 0x5e, 0xb6, 0x24, 0xf0, 0x11, 0x3c, 0x38,
  0xe7, 0x2a, 0xe1, 0xeb, 0x06, 0x27, 0x02, 0xf3, 0xfb, 0xf0, 0x3d, 0x36,
  0x0a, 0x25, 0x37, 0x13, 0xe7, 0x52, 0xff, 0x42, 0xe2, 0xd3, 0x09, 0xe2,
  0x10, 0x13, 0x01, 0xd3, 0x0d, 0xf5, 0xf8, 0x24, 0xeb, 0xc8, 0xbe, 0x3c,
  0x1f, 0xc1, 0xed, 0xc6, 0x41, 0x03, 0xe6, 0xc6, 0x39, 0xdc, 0x57, 0x27,
  0xe7, 0x9d, 0xfa, 0xc7, 0x46, 0x41, 0x41, 0xc9, 0xeb, 0xd2, 0xc8, 0x3b,
  0xf4, 0xe3, 0xc9, 0x27, 0xae, 0x2c, 0x11, 0x3d, 0xd3, 0x1b, 0xfb, 0x1b,
  0x04, 0x2e, 0x10, 0xe2, 0xda, 0xc2, 0xbd, 0xc5, 0xd9, 0xeb, 0xd9, 0xda,
  0xca, 0xed, 0xb4, 0xb5, 0x2f, 0x18, 0xb3, 0xec, 0xdf, 0xac, 0xb0, 0xdf,
  0xe0, 0xf3, 0xf2, 0x1f, 0x21, 0x0a, 0x0d, 0xba, 0xdf, 0xd5, 0xdf, 0xae,
  0x40, 0x02, 0xb2, 0xce, 0x30, 0xb2, 0xba, 0x15, 0xe8, 0xe3, 0x27, 0x13,
  0x3a, 0xae, 0xed, 0x4a, 0xdb, 0xca, 0xab, 0xc4, 0x30, 0xad, 0x4f, 0xc7,
  0xe9, 0xf5, 0xfa, 0xaf, 0x07, 0x3a, 0x4d, 0xbc, 0x38, 0x19, 0x32, 0xec,
  0xf7, 0x15, 0x46, 0xbd, 0x46, 0x15, 0xf7, 0x10, 0x08, 0x41, 0xdb, 0x10,
  0xe3, 0x48, 0xb4, 0x41, 0x2f, 0xe5, 0xec, 0x1b, 0x3c, 0xd2, 0x05, 0xec,
  0xd9, 0x22, 0xff, 0xc6, 0xd7, 0xd7, 0xe5, 0x33, 0x08, 0x0e, 0xc9, 0x43,
  0x21, 0x2c, 0x1a, 0xdf, 0xd7, 0xdd, 0xe7, 0x44, 0xbe, 0xdf, 0xff, 0xd8,
  0xde, 0xe1, 0xc7, 0x0c, 0xdb, 0x36, 0x1d, 0xc3, 0x45, 0xd0, 0x17, 0xdc,
  0xfd, 0x04, 0x2c, 0xc1, 0x02, 0x42, 0x45, 0x49, 0x22, 0x1c, 0xbf, 0x41,
  0xdb, 0xe0, 0x2c, 0x04, 0xc8, 0x17, 0xe5, 0x36, 0xd7, 0x37, 0xc6, 0xd7,
  0xb1, 0xfc, 0xc7, 0x52, 0xc0, 0xd3, 0xfc, 0xd8, 0xb0, 0xe2, 0x3f, 0xc0,
  0xbd, 0xc6, 0x49, 0xfb, 0x4e, 0x35, 0x47, 0x1f, 0xcd, 0xd9, 0xeb, 0x4a,
  0x47, 0x3c, 0x14, 0xc8, 0xb6, 0x02, 0xef, 0x0a, 0xda, 0x0f, 0xb6, 0xca,
  0x23, 0x05, 0x34, 0xb8, 0x1d, 0xba, 0xb2, 0xb3, 0xe8, 0x20, 0x05, 0x0b,
  0x36, 0xe4, 0xf0, 0x1b, 0x41, 0xda, 0xdb, 0xc9, 0xb3, 0x44, 0x19, 0xe2,
  0xca, 0x42, 0xcf, 0xbe, 0xb2, 0xec, 0x1c, 0xec, 0x52, 0xd0, 0xcd, 0xcb,
  0xbf, 0x15, 0x16, 0x06, 0xff, 0x21, 0xde, 0xdd, 0xf0, 0xb5, 0xc8, 0xc4,
  0x44, 0x1d, 0x11, 0xd5, 0x49, 0xf8, 0xc0, 0x03, 0xd0, 0xcb, 0xd4, 0x48,
  0xef, 0xbc, 0xeb, 0x32, 0x38, 0x14, 0xb1, 0x03, 0x04, 0x1b, 0x15, 0xb9,
  0xf9, 0xec, 0x05, 0x3e, 0xea, 0xf5, 0x1a, 0x13, 0xda, 0x17, 0x0d, 0xe8,
  0xf4, 0xff, 0x34, 0xc6, 0xd7, 0xf5, 0x4f, 0x07, 0x0f, 0x18, 0x53, 0xd5,
  0x08, 0xcb, 0x16, 0xf0, 0xd5, 0x13, 0x32, 0xd2, 0x1a, 0x1e, 0xc7, 0x3a,
  0xc6, 0x02, 0x07, 0x2e, 0xb9, 0x06, 0xda, 0x27, 0x12, 0x52, 0xbb, 0x33,
  0xc9, 0x4e, 0x36, 0x1d, 0x0e, 0xbc, 0x3c, 0x2b, 0xc5, 0x2a, 0x43, 0xbb,
  0x1c, 0xc6, 0x1f, 0x50, 0x28, 0x00, 0x0e, 0xf8, 0x30, 0x3a, 0x45, 0x2b,
  0xf3, 0xb9, 0xfe, 0x2c, 0xf9, 0xd7, 0xde, 0xcc, 0x46, 0xfc, 0xc9, 0xd0,
  0x1c, 0xe8, 0x30, 0xad, 0x14, 0xfc, 0x47, 0x2c, 0x33, 0x46, 0x4e, 0xeb,
  0xe5, 0x2b, 0x0a, 0xf1, 0xb6, 0xbc, 0xc5, 0x1b, 0xcc, 0xc1, 0x1b, 0x34,
  0x00, 0x19, 0x3a, 0xc8, 0xfa, 0x1e, 0x45, 0x4c, 0xc8, 0xce, 0xae, 0x13,
  0xbb, 0xcf, 0xef, 0x04, 0xf1, 0xec, 0xb3, 0x4b, 0x09, 0x0b, 0x3f, 0xfc,
  0xd8, 0xba, 0xba, 0x23, 0xe3, 0x3b, 0xb9, 0x1f, 0xdf, 0xe8, 0xe9, 0xfd,
  0x3d, 0xef, 0xf5, 0x3c, 0xc9, 0x14, 0xe2, 0xb2, 0x32, 0xbd, 0x4a, 0xba,
  0xc3, 0xbe, 0xef, 0xc7, 0x19, 0x4a, 0xb8, 0xcd, 0xce, 0xd1, 0x33, 0x15,
  0x10, 0xd4, 0x2b, 0x15, 0xcd, 0x10, 0xc5, 0xb8, 0xb8, 0xf9, 0xe6, 0xdf,
  0x40, 0x4b, 0xaa, 0xe0, 0x0a, 0xad, 0x30, 0xc2, 0xfd, 0x10, 0x3f, 0xde,
  0xfa, 0xaa, 0x34, 0xf0, 0xc2, 0x22, 0xc1, 0x01, 0x08, 0x22, 0xc0, 0x12,
  0x2f, 0xb7, 0xde, 0x22, 0x40, 0xaa, 0xde, 0x0b, 0xe7, 0xef, 0xd3, 0x46,
  0x34, 0x38, 0x2f, 0xf8, 0xdd, 0x4c, 0x19, 0xe5, 0x37, 0x0d, 0xad, 0x3f,
  0xc0, 0x3d, 0xdf, 0x1a, 0x2b, 0x46, 0x3e, 0x3d, 0x22, 0xbe, 0xf0, 0x27,
  0xcd, 0xac, 0x26, 0x08, 0xe3, 0x14, 0xc1, 0x00, 0xe4, 0xc4, 0x00, 0xaa,
  0x31, 0x07, 0xdf, 0x0d, 0xc5, 0xf4, 0xdc, 0x21, 0x48, 0xee, 0xc5, 0xc1,
  0xbf, 0x0a, 0xae, 0x3e, 0xe4, 0x0b, 0xc7, 0x49, 0x23, 0xe4, 0xca, 0x07,
  0xae, 0xd7, 0x08, 0x1c, 0x37, 0xd7, 0x28, 0xf7, 0xf2, 0xcd, 0xe8, 0x00,
  0xd1, 0xf7, 0x4c, 0xe7, 0xf2, 0x4c, 0xcf, 0x3a, 0xf7, 0x0f, 0xae, 0x48,
  0x19, 0x2a, 0xb5, 0xe7, 0xf0, 0xf4, 0x06, 0x41, 0x05, 0x32, 0x50, 0x32,
  0x21, 0x14, 0xd8, 0x14, 0x20, 0xb0, 0xc6, 0x34, 0xe9, 0xf5, 0xc2, 0xe2,
  0xc8, 0xe5, 0xc0, 0xee, 0xef, 0x19, 0x43, 0xce, 0x29, 0x39, 0x06, 0xe6,
  0x43, 0xbe, 0x3f, 0xe8, 0xd3, 0xe8, 0xd6, 0x15, 0xd5, 0xb6, 0x27, 0x1e,
  0xc5, 0xcb, 0x08, 0xcb, 0xfa, 0x40, 0x43, 0xf9, 0x05, 0xaf, 0xd7, 0x19,
  0x13, 0x13, 0xe2, 0xca, 0xd2, 0xb7, 0x1e, 0xf1, 0xc3, 0x4c, 0xbc, 0xb2,
  0xfd, 0x17, 0x22, 0x4a, 0x44, 0x46, 0xcd, 0xeb, 0x26, 0xcd, 0xd0, 0xfe,
  0x3f, 0xae, 0x27, 0xf5, 0xe6, 0xc8, 0x32, 0xf6, 0x1f, 0xce, 0x4b, 0x10,
  0x1e, 0xc6, 0x39, 0x3b, 0x09, 0x07, 0x13, 0xe5, 0xfd, 0x14, 0xd2, 0xee,
  0x34, 0xb1, 0x18, 0x22, 0xd8, 0xcf, 0x24, 0x10, 0xaa, 0x4d, 0xb9, 0x0c,
  0xf4, 0xb0, 0x10, 0x2c, 0xcd, 0x34, 0x01, 0x3a, 0x43, 0xaf, 0x26, 0xbe,
  0xc3, 0xbd, 0x15, 0xf3, 0xb2, 0xe3, 0xc3, 0xdf, 0x0f, 0x18, 0x27, 0xfb,
  0xa1, 0xa3, 0x23, 0xdd, 0x60, 0x1c, 0xd9, 0xb6, 0xf9, 0xc1, 0x43, 0xf6,
  0x25, 0x2d, 0xd5, 0xcc, 0xb1, 0xfb, 0xaf, 0xe1, 0x2f, 0x25, 0x0c, 0x58,
  0x21, 0x1d, 0xda, 0xf5, 0x25, 0x0e, 0x22, 0x12, 0xd2, 0x3b, 0x36, 0x48,
  0xf3, 0xce, 0x49, 0x3f, 0x6d, 0x52, 0xfa, 0xc9, 0x0a, 0x30, 0xee, 0xda,
  0x0c, 0x0a, 0x1b, 0xac, 0x00, 0x2d, 0xb8, 0xd8, 0xd0, 0x47, 0x3d, 0x28,
  0xf5, 0xdf, 0x62, 0xce, 0x0c, 0xeb, 0xe6, 0x22, 0x16, 0xbe, 0xf2, 0x42,
  0xcf, 0xd6, 0x34, 0x07, 0x44, 0x5d, 0xdc, 0x3c, 0x59, 0xea, 0x38, 0xa4,
  0x39, 0xea, 0x51, 0x0a, 0x18, 0x34, 0x0d, 0xdd, 0xfc, 0x29, 0x6e, 0x58,
  0xe5, 0x2c, 0x17, 0xbc, 0xf8, 0x41, 0xab, 0xc0, 0x48, 0x35, 0x2a, 0x2d,
  0x07, 0xf9, 0x36, 0x17, 0x3c, 0x36, 0x23, 0x09, 0x65, 0xfb, 0xe2, 0xb4,
  0xd5, 0x06, 0xcf, 0xb2, 0xe0, 0x16, 0x02, 0xa5, 0xea, 0x27, 0x28, 0x2b,
  0xc1, 0xdf, 0x07, 0xdc, 0xb2, 0xdb, 0x10, 0xae, 0x1c, 0x1c, 0x2a, 0xe2,
  0x1a, 0xb5, 0xcd, 0x29, 0x35, 0x19, 0xc5, 0xcf, 0x48, 0x08, 0x13, 0x33,
  0xc3, 0xe9, 0x10, 0xe2, 0xd2, 0x55, 0x1f, 0x00, 0xe6, 0x49, 0x48, 0x7f,
  0xa6, 0x07, 0x37, 0x51, 0xe4, 0xd5, 0x0b, 0xe1, 0x58, 0xee, 0xbb, 0x27,
  0x4c, 0x18, 0xca, 0xc0, 0xf1, 0x46, 0x18, 0xe0, 0xe8, 0xfd, 0xcf, 0xcc,
  0xb6, 0x31, 0xfc, 0xc7, 0x1d, 0xca, 0xd9, 0xc6, 0x1b, 0x27, 0x2e, 0xdb,
  0x15, 0x0a, 0xb9, 0x4d, 0xf1, 0x4d, 0xfe, 0xb4, 0xfc, 0xb2, 0x3d, 0xf3,
  0xb9, 0xb9, 0xc2, 0xff, 0xd5, 0xb7, 0xfd, 0x1b, 0x32, 0xed, 0x4a, 0x4b,
  0xce, 0x28, 0x10, 0x42, 0xfc, 0x01, 0xb4, 0xd3, 0x09, 0xb9, 0xd3, 0xad,
  0xd4, 0xc0, 0xe6, 0x11, 0xc3, 0x09, 0xdb, 0xf7, 0xeb, 0xb7, 0xaa, 0xdd,
  0x43, 0xc1, 0x22, 0xc5, 0x05, 0xed, 0x18, 0x43, 0xae, 0xf2, 0x2c, 0xcf,
  0x37, 0xd6, 0x0e, 0x3c, 0x4b, 0xe6, 0xab, 0x22, 0xbe, 0x12, 0xbe, 0x34,
  0x50, 0xbc, 0xea, 0x23, 0x05, 0x31, 0xb8, 0xdb, 0x3b, 0xe6, 0x16, 0x16,
  0x49, 0xae, 0xab, 0xec, 0x38, 0xf4, 0xfe, 0xb5, 0x41, 0x28, 0x0c, 0xe4,
  0x4e, 0x45, 0x29, 0x22, 0x20, 0xe1, 0xb0, 0x1c, 0xaf, 0xf2, 0x06, 0x34,
  0x28, 0xe4, 0xcc, 0x0b, 0xf4, 0xf8, 0xf0, 0xd1, 0x40, 0xf9, 0xdd, 0x40,
  0xce, 0xd9, 0x0d, 0x2d, 0xc8, 0xbd, 0xbe, 0xd5, 0x40, 0xe0, 0x2b, 0xed,
  0xce, 0xe0, 0x41, 0xee, 0x01, 0xe9, 0x0f, 0x4a, 0x2d, 0xbe, 0x13, 0x38,
  0xcd, 0xcc, 0x3c, 0xf5, 0xf8, 0x3e, 0x19, 0xe2, 0xed, 0xec, 0x23, 0x11,
  0x05, 0x15, 0xaf, 0x0c, 0x29, 0xf2, 0xc6, 0x32, 0x44, 0x15, 0xe7, 0x0f,
  0xd9, 0xe1, 0x10, 0x0c, 0xf5, 0xb7, 0x28, 0xad, 0xd3, 0x1d, 0x06, 0xcd,
  0x3b, 0xb3, 0x1f, 0xbe, 0x08, 0xc0, 0xeb, 0xcc, 0x01, 0x23, 0xaf, 0xaf,
  0x0d, 0x4d, 0xd0, 0x2d, 0xe7, 0x2e, 0xbb, 0x22, 0xd2, 0xfe, 0xe5, 0xb8,
  0x24, 0x43, 0xfb, 0xdc, 0xbb, 0xd5, 0xcf, 0xaf, 0xc5, 0x26, 0x37, 0x16,
  0xb5, 0xe4, 0x3c, 0xb8, 0x2a, 0x00, 0xf9, 0x08, 0xd0, 0x0f, 0xdf, 0xf5,
  0x4e, 0x11, 0xb8, 0x52, 0xd7, 0xff, 0xce, 0x09, 0xd2, 0x14, 0x0e, 0x34,
  0xfa, 0xd2, 0x08, 0xe2, 0x49, 0x4a, 0x06, 0xc3, 0x37, 0xbb, 0xfa, 0xbe,
  0x1b, 0xfd, 0x14, 0x43, 0x19, 0x26, 0xf0, 0xe7, 0x38, 0xe2, 0xc3, 0xd9,
  0x0a, 0xb0, 0x01, 0xe9, 0x39, 0xc9, 0xea, 0xfb, 0xc7, 0x53, 0x43, 0xd1,
  0xcf, 0xb0, 0x43, 0x16, 0x39, 0x2f, 0xd6, 0xb5, 0x23, 0x2c, 0xd0, 0x15,
  0x46, 0xbf, 0xcc, 0xeb, 0xba, 0x2c, 0x44, 0x52, 0xbc, 0xd2, 0x0d, 0xb2,
  0x2a, 0xe4, 0xae, 0xb9, 0x0e, 0x2a, 0xbc, 0x43, 0x3d, 0xc8, 0xc8, 0x07,
  0xaf, 0x3b, 0xbd, 0xce, 0x41, 0x04, 0x4c, 0xca, 0xda, 0x25, 0xd1, 0xeb,
  0xb2, 0xbc, 0x4b, 0x31, 0xd5, 0x30, 0xb9, 0x48, 0xbc, 0xea, 0x49, 0xfa,
  0x3b, 0x00, 0x17, 0xc5, 0xb7, 0xbb, 0x0c, 0xe0, 0x22, 0x19, 0x2c, 0xaf,
  0xd2, 0x12, 0x4b, 0x3d, 0xef, 0x4a, 0xc0, 0x0b, 0xda, 0xc7, 0xd3, 0xd9,
  0xf7, 0xc3, 0xc6, 0xe3, 0x3f, 0xef, 0xed, 0xf3, 0x4d, 0x01, 0xd0, 0x57,
  0xcb, 0xb9, 0x00, 0xfa, 0x24, 0xd1, 0x04, 0xd1, 0xf1, 0x36, 0xf2, 0xfe,
  0xa5, 0xa8, 0x43, 0x3c, 0xb7, 0x04, 0x3f, 0xea, 0xd2, 0xc9, 0xdd, 0x15,
  0x3b, 0xfb, 0xf1, 0xbe, 0x3e, 0xb5, 0x24, 0xa3, 0xe2, 0x2c, 0xd9, 0x39,
  0x28, 0x37, 0xd7, 0x15, 0xb9, 0xb2, 0xfc, 0xed, 0x4a, 0xd1, 0xcc, 0x1a,
  0xfe, 0xab, 0x41, 0x41, 0x3b, 0x48, 0x31, 0xfa, 0x18, 0xe1, 0xee, 0xb2,
  0x18, 0xca, 0xfd, 0xf4, 0x21, 0x1f, 0xf1, 0x0c, 0x02, 0x33, 0xb7, 0x4a,
  0x40, 0x3c, 0x21, 0x1e, 0xe2, 0x39, 0xe4, 0x24, 0x4a, 0xf0, 0x41, 0x2e,
  0x29, 0xac, 0x59, 0xd7, 0x0f, 0x41, 0x2e, 0x1b, 0xbe, 0xc8, 0x19, 0xdf,
  0xd0, 0x08, 0x17, 0xf4, 0x3d, 0xf6, 0x2a, 0x31, 0xee, 0xce, 0x53, 0x09,
  0xa8, 0x12, 0xde, 0xc1, 0xff, 0xcd, 0x2c, 0xfc, 0x25, 0xe3, 0x52, 0xf2,
  0xb9, 0xb1, 0xf2, 0x47, 0xd5, 0x2b, 0x43, 0x1c, 0xf3, 0x40, 0xb2, 0x37,
  0x09, 0xfa, 0x39, 0xb7, 0x43, 0x22, 0x1d, 0xc6, 0x26, 0x44, 0x0d, 0x40,
  0xe3, 0x48, 0x30, 0x02, 0xb1, 0xc4, 0x3b, 0xde, 0x1f, 0x37, 0xba, 0x28,
  0x10, 0x4c, 0x46, 0xd1, 0x00, 0x38, 0x49, 0x35, 0x1b, 0x37, 0xcf, 0x16,
  0x1f, 0x0c, 0x1f, 0xaf, 0xf7, 0xe0, 0x0b, 0xbd, 0x00, 0xcf, 0xfc, 0x49,
  0xce, 0x00, 0x42, 0x38, 0xac, 0xc1, 0x43, 0xc3, 0xea, 0xda, 0xc8, 0x18,
  0x1a, 0x2d, 0x46, 0xec, 0xaf, 0xe6, 0xb8, 0xd7, 0xf8, 0xaf, 0x2f, 0xc6,
  0xf8, 0xf5, 0xd3, 0xf0, 0x17, 0xd7, 0xcb, 0x3b, 0x3a, 0xf2, 0x35, 0xaf,
  0xc9, 0x1d, 0xcf, 0x1c, 0x35, 0x45, 0xcf, 0x26, 0xe2, 0x1e, 0xd8, 0xeb,
  0xfe, 0x19, 0xcf, 0x06, 0x2f, 0xe8, 0xfb, 0x41, 0xd6, 0xf8, 0xbc, 0xf7,
  0xb1, 0x3f, 0x16, 0xf6, 0xe2, 0xb7, 0x0a, 0xc2, 0xe3, 0x09, 0xf7, 0xb4,
  0xef, 0xd3, 0xcf, 0x22, 0xce, 0x1a, 0x19, 0xdd, 0xb7, 0xbb, 0x39, 0xd2,
  0xb8, 0xec, 0xfe, 0xbe, 0x1d, 0x1a, 0x04, 0xd3, 0xe5, 0xc5, 0xd7, 0xd4,
  0x4c, 0x0d, 0xeb, 0x03, 0xad, 0xb2, 0x2d, 0x3d, 0xc7, 0xd2, 0xd1, 0xe9,
  0xe4, 0x35, 0x11, 0x0a, 0x1b, 0x17, 0x12, 0x0f, 0xfa, 0xe5, 0xf2, 0xe4,
  0x22, 0x28, 0x2a, 0xfd, 0xcf, 0xc0, 0xbc, 0x08, 0xec, 0xf9, 0x2f, 0x4c,
  0xe7, 0x39, 0xeb, 0xb4, 0x2d, 0xed, 0xc7, 0x18, 0xc4, 0x31, 0x37, 0x08,
  0xb3, 0xf6, 0x03, 0x32, 0x03, 0x43, 0xde, 0xad, 0x21, 0xda, 0x3b, 0xd9,
  0x18, 0x2f, 0xe8, 0x23, 0x4c, 0xc9, 0xf0, 0x21, 0xd9, 0xe4, 0xc1, 0xc5,
  0xc2, 0x27, 0xae, 0xcb, 0x12, 0xd9, 0xeb, 0x25, 0x36, 0x03, 0x0d, 0xdb,
  0xf7, 0x15, 0xe5, 0xbd, 0xc7, 0xf5, 0xee, 0x40, 0x1c, 0xe4, 0x46, 0x3e,
  0x15, 0xdf, 0x2c, 0xc8, 0x29, 0x24, 0x00, 0xb5, 0xd3, 0xc0, 0x33, 0xce,
  0xba, 0x33, 0xc1, 0x44, 0xe2, 0xb5, 0x0f, 0x0d, 0xfe, 0x1e, 0xe7, 0xac,
  0xf8, 0x00, 0xdf, 0xb8, 0x0e, 0xf5, 0x1c, 0xed, 0xb6, 0xd5, 0xea, 0xe3,
  0xb0, 0xfe, 0xcb, 0x2e, 0x49, 0x3b, 0xb8, 0xb7, 0xfd, 0xd0, 0xdf, 0x45,
  0xd0, 0x11, 0xc5, 0x4b, 0x40, 0xdb, 0x4b, 0x36, 0xb2, 0x41, 0xd7, 0xb7,
  0x3d, 0xdd, 0xe2, 0x18, 0xed, 0xf3, 0x1d, 0x27, 0xe5, 0xc4, 0xfb, 0x1d,
  0x0e, 0x08, 0xe5, 0x2a, 0x0f, 0xd5, 0xe3, 0x10, 0xde, 0xeb, 0xe1, 0xde,
  0xe0, 0x46, 0xd8, 0x3c, 0xfd, 0xf5, 0xd5, 0x08, 0xd9, 0xc1, 0xe7, 0xe9,
  0x2c, 0x20, 0xb8, 0x39, 0xed, 0x2b, 0x03, 0xc5, 0xca, 0xbf, 0xf7, 0xe9,
  0xf6, 0xbe, 0xcc, 0x19, 0x0a, 0x1e, 0xd1, 0xe1, 0x0f, 0x2f, 0x38, 0x11,
  0x34, 0x3f, 0x2c, 0x29, 0xec, 0xfb, 0x29, 0x26, 0xf6, 0x27, 0x05, 0x1c,
  0x1c, 0xfc, 0xc6, 0xbe, 0xc2, 0xb7, 0x46, 0xb2, 0x23, 0x4e, 0xe9, 0xd3,
  0x45, 0xf0, 0xc3, 0x4b, 0x24, 0xd5, 0x38, 0x39, 0xcd, 0xcd, 0x03, 0x32,
  0xb9, 0xca, 0x26, 0xe0, 0x35, 0xb8, 0xc1, 0x1a, 0x0d, 0x2c, 0x48, 0x20,
  0xba, 0xfe, 0x21, 0xbf, 0x2b, 0xb9, 0xd4, 0x3b, 0xda, 0xae, 0x0b, 0xee,
  0xc0, 0xec, 0x09, 0x1f, 0xb0, 0xdd, 0xca, 0xf2, 0x09, 0xcd, 0xf6, 0x0b,
  0x05, 0xb5, 0x4e, 0x2d, 0xee, 0xb2, 0xfa, 0xb8, 0x40, 0xc9, 0x34, 0xfb,
  0xec, 0xc7, 0xaf, 0xf3, 0x50, 0xe1, 0x25, 0xba, 0xed, 0xb8, 0xd6, 0x06,
  0xcb, 0xb2, 0xc6, 0xc8, 0xc4, 0x3c, 0x00, 0xd4, 0xfb, 0x44, 0x4a, 0x29,
  0x34, 0x02, 0x28, 0x21, 0xf1, 0xed, 0xe1, 0xdb, 0xdd, 0x3a, 0xd0, 0x2f,
  0x0a, 0xbe, 0x46, 0x09, 0x18, 0xbc, 0x25, 0xdd, 0xd7, 0xf8, 0xf2, 0x03,
  0x17, 0xf8, 0x3a, 0x4c, 0x3c, 0x30, 0xde, 0xdd, 0x0a, 0xe6, 0x1b, 0x47,
  0x50, 0x19, 0xe1, 0xae, 0x4d, 0x30, 0xcb, 0x16, 0x42, 0x19, 0x36, 0xd9,
  0xb3, 0xcc, 0x4f, 0x52, 0xbe, 0x2e, 0xf7, 0xd3, 0xef, 0x0c, 0xaf, 0x00,
  0x4d, 0xe9, 0x2c, 0x39, 0x12, 0xb8, 0xdd, 0x23, 0xdf, 0xe7, 0xca, 0x28,
  0xfb, 0xc3, 0x44, 0xaf, 0xfd, 0x1d, 0xc9, 0xe0, 0x1b, 0xcb, 0x2f, 0x1c,
  0x43, 0xe5, 0x43, 0x2a, 0x04, 0xf8, 0xfd, 0x4f, 0xb5, 0x4d, 0xcd, 0x02,
  0xc8, 0xdc, 0x3b, 0xb6, 0xcb, 0x38, 0xb3, 0xda, 0xf0, 0x3b, 0x13, 0x34,
  0x30, 0xb9, 0xfa, 0x40, 0xd4, 0xcf, 0xb5, 0xfe, 0xc4, 0xbd, 0xbf, 0xcd,
  0xca, 0x27, 0xc4, 0xd9, 0x0c, 0xbb, 0x48, 0xb6, 0xf0, 0x0b, 0xf5, 0xbb,
  0x00, 0xed, 0xd2, 0xe0, 0x4f, 0xdb, 0x2a, 0xd2, 0xb8, 0x17, 0x49, 0xd1,
  0xf7, 0xf8, 0x4e, 0xe7, 0x09, 0xcf, 0xe7, 0xcf, 0xb7, 0x17, 0x17, 0x0a,
  0xad, 0xb7, 0x20, 0xd6, 0xea, 0x33, 0xb0, 0xfc, 0x07, 0xf6, 0x11, 0xd6,
  0x30, 0xb1, 0x24, 0x18, 0xec, 0xbe, 0xaf, 0x16, 0x36, 0xc9, 0xb0, 0x0a,
  0x44, 0xd5, 0x13, 0xee, 0xd9, 0x00, 0xfa, 0x3e, 0xae, 0xf4, 0xf4, 0x41,
  0xc5, 0xeb, 0xdb, 0xfc, 0x12, 0xec, 0xc5, 0xd3, 0x05, 0x34, 0xf1, 0x2c,
  0x4d, 0xd5, 0xc6, 0x05, 0x20, 0x3f, 0x16, 0x01, 0x04, 0xd9, 0xd9, 0xd8,
  0xb4, 0xc6, 0xd6, 0x3c, 0x3f, 0x06, 0x3d, 0xd8, 0xbd, 0x14, 0xd0, 0x38,
  0x2e, 0xba, 0xe6, 0x25, 0xe0, 0x15, 0x27, 0xb0, 0x0b, 0xc6, 0x0c, 0x17,
  0xc2, 0xf5, 0xce, 0x16, 0x0f, 0x24, 0xd9, 0x25, 0x0a, 0xe4, 0xeb, 0xdd,
  0xb0, 0x3d, 0x2f, 0x34, 0x0a, 0x1f, 0x2a, 0xfe, 0xca, 0xe8, 0xdb, 0x09,
  0xef, 0xcb, 0xdd, 0xe5, 0x28, 0xca, 0x02, 0xc6, 0xbb, 0xe0, 0x21, 0xfc,
  0x3e, 0xcb, 0xf8, 0x32, 0xd4, 0x09, 0x2a, 0x16, 0xd4, 0x1b, 0xab, 0xe8,
  0x30, 0xe0, 0x42, 0xf9, 0xcb, 0x3a, 0x1d, 0x23, 0x11, 0xba, 0x20, 0xbe,
  0xe3, 0xdd, 0x29, 0x13, 0xd4, 0x47, 0x29, 0x1a, 0x16, 0xe8, 0xd2, 0xe1,
  0x20, 0x1b, 0xe8, 0xff, 0xe5, 0xb8, 0x27, 0xef, 0x46, 0x40, 0xbf, 0x1b,
  0x26, 0xc9, 0x00, 0xc7, 0xe4, 0x41, 0x1a, 0xd2, 0xc8, 0x05, 0xd9, 0x2d,
  0x20, 0xff, 0xf6, 0xb8, 0xfd, 0x35, 0xc8, 0xaf, 0xfd, 0xc0, 0x28, 0xc2,
  0xac, 0xb7, 0xfa, 0x3d, 0xae, 0x06, 0xdd, 0xe3, 0x45, 0xa8, 0xdd, 0xcb,
  0xec, 0x21, 0x36, 0x09, 0xfd, 0xfd, 0xe4, 0x27, 0x13, 0xb3, 0xdf, 0x48,
  0xb3, 0xaf, 0xad, 0xc9, 0xd9, 0xbd, 0x42, 0xd1, 0x47, 0x4b, 0x09, 0x31,
  0x07, 0xda, 0xb3, 0xf7, 0xe6, 0xe4, 0x28, 0xb3, 0xc2, 0xa6, 0xdc, 0x3b,
  0xe5, 0xd6, 0xcd, 0xf7, 0xd1, 0x39, 0x2d, 0xbc, 0x1e, 0xde, 0xed, 0xbf,
  0x47, 0x0b, 0xdc, 0x2f, 0x02, 0xd1, 0x49, 0x16, 0x37, 0xf6, 0xd4, 0x13,
  0xc7, 0x23, 0xf9, 0xbe, 0xc1, 0xcd, 0x0c, 0x33, 0xda, 0x19, 0xc8, 0xb1,
  0xc2, 0xa8, 0xf0, 0x17, 0xb6, 0xe3, 0xf4, 0x22, 0x3e, 0xd5, 0xd1, 0xc9,
  0xec, 0x28, 0xf2, 0x2a, 0x11, 0xb7, 0xfe, 0x4a, 0x34, 0xae, 0x1b, 0x19,
  0xb7, 0xf4, 0x05, 0xc8, 0xc4, 0xe7, 0xe6, 0x43, 0x28, 0x21, 0x23, 0x41,
  0xc7, 0xf0, 0x19, 0x31, 0x2a, 0xe7, 0xeb, 0x1d, 0x32, 0xbc, 0xf4, 0xb6,
  0xf2, 0xb4, 0x19, 0x08, 0xb0, 0xbb, 0xb0, 0xdc, 0xf3, 0xe4, 0x18, 0xcd,
  0x2e, 0x47, 0xe3, 0xec, 0xe7, 0x21, 0x2f, 0x1c, 0x38, 0xb2, 0xf6, 0xe4,
  0xd0, 0x39, 0xd6, 0x06, 0x4f, 0xe1, 0xb0, 0x34, 0x10, 0xf1, 0x2b, 0x2b,
  0x3b, 0x26, 0xc7, 0xc2, 0x0d, 0xd6, 0xb9, 0xcc, 0x28, 0x21, 0x44, 0xca,
  0xc1, 0xe5, 0x52, 0x02, 0xfa, 0xff, 0xfd, 0x00, 0x09, 0x50, 0xd9, 0x2a,
  0x36, 0x19, 0x48, 0xae, 0x2e, 0x04, 0xff, 0x2f, 0xe9, 0xb1, 0xca, 0x4c,
  0xcd, 0x48, 0xc0, 0x2f, 0x4b, 0xc3, 0xd4, 0x39, 0xc2, 0x4b, 0x48, 0x35,
  0x03, 0xde, 0x0c, 0xf4, 0xf8, 0xb8, 0x0d, 0x46, 0xc8, 0xe7, 0xb7, 0xe9,
  0x02, 0x38, 0xb5, 0xe5, 0xb6, 0x4f, 0xb7, 0xad, 0x43, 0x1e, 0x11, 0x35,
  0xb9, 0xd7, 0xcd, 0xf4, 0x37, 0x13, 0xf1, 0xc1, 0xba, 0xfd, 0xe7, 0xad,
  0x0c, 0x41, 0xca, 0xc8, 0xe1, 0x0f, 0x22, 0x0b, 0xd3, 0x40, 0xb3, 0x0d,
  0xb0, 0xb0, 0xe1, 0x1e, 0xe5, 0xd3, 0x11, 0xcf, 0x3b, 0x4d, 0x3b, 0x4f,
  0xd4, 0xd3, 0x44, 0xe1, 0xf4, 0xea, 0x13, 0x2e, 0x3e, 0xd3, 0x43, 0x24,
  0x2e, 0x42, 0x0d, 0xb4, 0xf2, 0x0e, 0xde, 0xcf, 0x43, 0xb7, 0x23, 0x16,
  0x0a, 0x54, 0x3e, 0xc2, 0x4b, 0x4d, 0xb2, 0x0b, 0xcc, 0x1b, 0xe6, 0xee,
  0x42, 0xbc, 0xf6, 0xe5, 0x2e, 0xc1, 0xcd, 0x46, 0xe5, 0xf2, 0xc5, 0xe9,
  0xd0, 0x24, 0xb0, 0xb5, 0x06, 0xb1, 0x1f, 0x12, 0x4d, 0xd5, 0x39, 0x5c,
  0xe6, 0x41, 0x54, 0xfe, 0x0f, 0x44, 0x3b, 0x25, 0xa7, 0x17, 0x06, 0xb3,
  0xcb, 0x30, 0x24, 0x3f, 0xec, 0x5d, 0x1e, 0x45, 0xb5, 0xdb, 0x48, 0xce,
  0xcb, 0x4a, 0xe8, 0x14, 0x0f, 0x0a, 0xdb, 0x22, 0xfc, 0x0c, 0xe1, 0x51,
  0x16, 0x07, 0xb4, 0x32, 0xc4, 0xcc, 0x46, 0xe9, 0x38, 0x06, 0x3a, 0xf7,
  0xd7, 0xd2, 0x5d, 0xce, 0xed, 0x13, 0x31, 0xdb, 0x22, 0xb1, 0x3f, 0xe9,
  0xcf, 0x0b, 0x33, 0x31, 0xe4, 0x47, 0xbf, 0x2f, 0x54, 0x3a, 0xe3, 0x39,
  0xd0, 0xf6, 0xe0, 0xe7, 0x08, 0xbb, 0xb4, 0xe5, 0xc5, 0xaf, 0x51, 0x3e,
  0xbd, 0x19, 0x58, 0xe5, 0xfa, 0x3d, 0x1b, 0x2d, 0x15, 0xec, 0x38, 0xb1,
  0x4b, 0x36, 0x11, 0xf1, 0x0c, 0xfd, 0x37, 0x11, 0x4c, 0x51, 0x00, 0x1d,
  0xd0, 0x42, 0x3e, 0x3c, 0xb6, 0xd8, 0xb0, 0xc7, 0x41, 0xf3, 0xf8, 0x3c,
  0x6e, 0xf7, 0xff, 0xff, 0x04, 0x00, 0x00, 0x00, 0x80, 0x00, 0x00, 0x00,
  0x00, 0x00, 0x00, 0x00, 0xf1, 0xff, 0xff, 0xff, 0xf3, 0xff, 0xff, 0xff,
  0x00, 0x00, 0x00, 0x00, 0xc1, 0xff, 0xff, 0xff, 0xf4, 0xff, 0xff, 0xff,
  0xf2, 0xff, 0xff, 0xff, 0xf4, 0xff, 0xff, 0xff, 0xf9, 0xff, 0xff, 0xff,
  0x07, 0x00, 0x00, 0x00, 0x00, 0x00, 0x00, 0x00, 0x5d, 0x00, 0x00, 0x00,
  0x00, 0x00, 0x00, 0x00, 0xf3, 0xff, 0xff, 0xff, 0xfe, 0xff, 0xff, 0xff,
  0x18, 0x00, 0x00, 0x00, 0x49, 0x00, 0x00, 0x00, 0xf9, 0xff, 0xff, 0xff,
  0x00, 0x00, 0x00, 0x00, 0xf0, 0xff, 0xff, 0xff, 0xfc, 0xff, 0xff, 0xff,
  0xe7, 0xff, 0xff, 0xff, 0xfd, 0xff, 0xff, 0xff, 0x00, 0x00, 0x00, 0x00,
  0xdf, 0xff, 0xff, 0xff, 0xf5, 0xff, 0xff, 0xff, 0xf9, 0xff, 0xff, 0xff,
  0xf8, 0xff, 0xff, 0xff, 0x00, 0x00, 0x00, 0x00, 0xeb, 0xff, 0xff, 0xff,
  0x00, 0x00, 0x00, 0x00, 0xf8, 0xff, 0xff, 0xff, 0xfa, 0xf7, 0xff, 0xff,
  0x04, 0x00, 0x00, 0x00, 0x00, 0x04, 0x00, 0x00, 0x2c, 0xd1, 0x12, 0x49,
  0xf5, 0x1b, 0x2a, 0x9a, 0x07, 0xbf, 0xe3, 0x34, 0x38, 0x28, 0xf3, 0xb0,
  0xad, 0x2a, 0x1b, 0xd6, 0x04, 0x22, 0x9f, 0x36, 0xd2, 0x39, 0xf9, 0x66,
  0x0a, 0xb1, 0xe7, 0xa6, 0x5a, 0xa6, 0x0e, 0x6d, 0x11, 0x5d, 0x0a, 0x48,
  0x6c, 0xf6, 0xfb, 0xb1, 0x18, 0xae, 0x51, 0xfd, 0xbb, 0x57, 0x93, 0x91,
  0x49, 0x4f, 0xdb, 0xfa, 0xf5, 0xab, 0x9a, 0x4e, 0x04, 0x11, 0x2a, 0xf4,
  0x12, 0x20, 0x31, 0xf9, 0x9a, 0x69, 0x26, 0xf0, 0x02, 0xd2, 0xb1, 0xf2,
  0x6a, 0xb1, 0xf1, 0x1e, 0xb7, 0xd8, 0xea, 0x01, 0xe0, 0xf6, 0x5d, 0x99,
  0x1e, 0x30, 0x9a, 0x6a, 0x0e, 0xed, 0x6d, 0xff, 0xf6, 0xdd, 0x38, 0xb5,
  0xc4, 0xeb, 0x56, 0x9d, 0xc3, 0xe3, 0x27, 0xaf, 0x50, 0x05, 0x35, 0xa1,
  0xc6, 0xcb, 0x31, 0x17, 0xbd, 0x72, 0x13, 0xa2, 0x91, 0x3f, 0xc7, 0x26,
  0x54, 0x6d, 0xb2, 0x2d, 0x00, 0xee, 0x6e, 0xd3, 0x3b, 0xc4, 0xf8, 0x11,
  0xc0, 0x37, 0x37, 0x01, 0xea, 0xe1, 0x70, 0x04, 0xde, 0x0b, 0x6e, 0x06,
  0xff, 0xd5, 0xa1, 0xb3, 0x1d, 0x43, 0x56, 0xb8, 0x51, 0xbb, 0x6e, 0xe7,
  0xf8, 0x2b, 0xd5, 0x19, 0xbb, 0xeb, 0xdd, 0xe7, 0x9b, 0xac, 0x2d, 0x30,
  0x2a, 0xfd, 0xc9, 0x2e, 0xd9, 0x63, 0xab, 0x6c, 0x6b, 0x37, 0xf9, 0x01,
  0x1a, 0xcc, 0x5c, 0xc0, 0x2c, 0xec, 0x0e, 0x54, 0x11, 0xf4, 0xd1, 0x05,
  0xc4, 0xae, 0x01, 0x9b, 0xeb, 0xe6, 0x1b, 0x98, 0xb5, 0xe8, 0xe2, 0xb2,
  0xfe, 0x49, 0xd2, 0x57, 0x54, 0xdb, 0xd4, 0x37, 0x2a, 0x40, 0xfa, 0x1e,
  0xee, 0x95, 0xe0, 0x9c, 0x9c, 0xf3, 0xac, 0xbb, 0x47, 0x0d, 0xfd, 0xec,
  0x38, 0xe7, 0x5f, 0xff, 0xfd, 0x2a, 0xf8, 0x1c, 0xdf, 0x3f, 0xfe, 0x42,
  0x48, 0xb3, 0xd8, 0xb7, 0xed, 0xc3, 0x56, 0x33, 0x09, 0xac, 0xbd, 0xa0,
  0x4e, 0xe4, 0xf8, 0xc1, 0xac, 0xc7, 0x94, 0xc4, 0x3a, 0x49, 0x6a, 0xcc,
  0x4d, 0xb3, 0xbb, 0x9a, 0xa1, 0xaf, 0x0b, 0xaf, 0x5e, 0x2c, 0x1c, 0xb7,
  0x2d, 0x97, 0xaa, 0x56, 0x09, 0xc3, 0x47, 0x4b, 0xce, 0xfa, 0xc0, 0xbe,
  0x31, 0xe9, 0xbf, 0xd2, 0x2a, 0xcf, 0xc1, 0x42, 0xb5, 0xe3, 0x2e, 0xa7,
  0xa0, 0x02, 0x66, 0xe7, 0xc0, 0xf0, 0x0e, 0x26, 0x5e, 0x38, 0x2b, 0x58,
  0xcd, 0xc7, 0x50, 0x0a, 0x2a, 0xec, 0xb8, 0xc3, 0x2d, 0x02, 0x20, 0x23,
  0xe4, 0x61, 0x14, 0xe0, 0x20, 0x29, 0x4c, 0xe2, 0xa1, 0x14, 0x9b, 0xdd,
  0x95, 0x42, 0xf8, 0xbd, 0xf6, 0x05, 0xe7, 0xcb, 0xee, 0x44, 0x66, 0x96,
  0xb2, 0x35, 0x1a, 0x2e, 0x8f, 0xcf, 0x4c, 0x5a, 0x63, 0x4c, 0xd6, 0x22,
  0x41, 0x98, 0xa8, 0xf7, 0x3f, 0xb6, 0x5a, 0x97, 0xca, 0xd1, 0xaa, 0x1b,
  0xfe, 0xcd, 0xf0, 0x69, 0x09, 0x07, 0xa9, 0x97, 0x3e, 0x47, 0xf8, 0x40,
  0x59, 0x0a, 0xcb, 0x23, 0xa3, 0xb8, 0xf0, 0xe7, 0x28, 0xa6, 0x35, 0x39,
  0xa2, 0xfa, 0xab, 0x48, 0xf4, 0x14, 0x55, 0x3b, 0xde, 0x20, 0xbf, 0xc8,
  0xe5, 0x5b, 0xf0, 0x21, 0x4a, 0xac, 0x54, 0xa6, 0x1e, 0x28, 0x06, 0x95,
  0x54, 0x42, 0xab, 0xe1, 0x09, 0x5d, 0xbb, 0x03, 0x13, 0xb8, 0x35, 0xd4,
  0xc1, 0x52, 0xac, 0x59, 0x97, 0xcb, 0x06, 0x23, 0x32, 0xff, 0xa5, 0x50,
  0x04, 0xa7, 0xed, 0xb1, 0x21, 0x25, 0x99, 0x44, 0x5f, 0x54, 0x45, 0xbf,
  0x2f, 0xaa, 0x72, 0x28, 0xa2, 0x1f, 0x49, 0xb8, 0x44, 0x3c, 0x2d, 0x49,
  0x50, 0x5b, 0x6b, 0x68, 0x3c, 0x11, 0xe3, 0xc7, 0xaa, 0x9a, 0x62, 0x4d,
  0x43, 0xef, 0x5b, 0x2e, 0x1b, 0x1b, 0x33, 0xf5, 0x36, 0xfc, 0xcb, 0xb3,
  0xef, 0x08, 0x1c, 0xf5, 0x9b, 0xf0, 0x20, 0x52, 0xf9, 0xc6, 0xa3, 0xb8,
  0x13, 0xc7, 0xf2, 0x70, 0xc9, 0x57, 0xad, 0xdd, 0x49, 0x0b, 0xfe, 0x70,
  0xf2, 0xb1, 0xad, 0x06, 0x31, 0x45, 0xd0, 0xeb, 0xfb, 0xce, 0x96, 0x27,
  0x0f, 0xd7, 0x4e, 0x68, 0xda, 0x4c, 0xe3, 0xee, 0x15, 0x69, 0x0e, 0x21,
  0x68, 0x62, 0xd5, 0x3c, 0xd1, 0x13, 0x25, 0x38, 0x16, 0x43, 0xf1, 0x53,
  0x3b, 0xbc, 0xbe, 0x11, 0xbd, 0xf0, 0x13, 0xbe, 0x03, 0x1a, 0xbd, 0x0c,
  0x34, 0xef, 0x16, 0x95, 0x45, 0x4f, 0xe6, 0x0f, 0xc5, 0x49, 0x06, 0xe9,
  0xb2, 0xdb, 0x2a, 0x36, 0x52, 0xb3, 0xe7, 0x52, 0xc9, 0x9a, 0x61, 0xe5,
  0x31, 0x17, 0xd0, 0xf2, 0x94, 0x67, 0x91, 0x3f, 0x10, 0x68, 0xdc, 0x6f,
  0xca, 0x43, 0x5a, 0xbb, 0x35, 0xf7, 0xa9, 0xe0, 0xf2, 0x6b, 0x3e, 0xe0,
  0xb7, 0x13, 0x6a, 0x2a, 0xa9, 0xdc, 0xf6, 0x19, 0x6d, 0x17, 0xe9, 0xd9,
  0x0e, 0xbc, 0x07, 0xaf, 0x9f, 0x50, 0xf7, 0xc8, 0x0a, 0xd7, 0xde, 0x14,
  0x10, 0x33, 0x68, 0xdc, 0xa3, 0xae, 0xe1, 0x3b, 0x99, 0x23, 0xf0, 0x9d,
  0x19, 0x2d, 0xfe, 0xe6, 0xf1, 0xd9, 0xb4, 0x3a, 0xe9, 0x33, 0xed, 0x06,
  0xd2, 0xaa, 0x4d, 0xb0, 0xf8, 0x40, 0xb8, 0x5c, 0xbd, 0xc2, 0xb5, 0x15,
  0xdb, 0x54, 0xfb, 0x9d, 0x0f, 0xc1, 0x5a, 0x11, 0xe2, 0xb8, 0x3b, 0xb3,
  0xd2, 0x0e, 0x11, 0xa9, 0xbb, 0xdf, 0x46, 0x58, 0x22, 0xb3, 0xbd, 0x52,
  0xd2, 0x63, 0xe3, 0xb4, 0xf5, 0xa5, 0x6d, 0xad, 0xc4, 0xeb, 0x17, 0xd9,
  0x53, 0xc1, 0xa5, 0x7f, 0xdf, 0x99, 0xfc, 0x31, 0x5d, 0xe9, 0x59, 0xcf,
  0xe3, 0x06, 0x60, 0xd0, 0x08, 0xcb, 0x3d, 0xfb, 0x52, 0x9a, 0x22, 0x82,
  0x38, 0xfc, 0x3b, 0x4d, 0x5c, 0x3d, 0x50, 0x4a, 0x43, 0x25, 0xed, 0x01,
  0x53, 0x63, 0x24, 0xd2, 0xc4, 0x64, 0xf1, 0xc4, 0xdf, 0xb4, 0x57, 0xe9,
  0x6c, 0xd8, 0x15, 0x50, 0xcd, 0x25, 0x04, 0x2d, 0x21, 0x4d, 0x3d, 0x0a,
  0x5b, 0x3e, 0x4e, 0x9d, 0x43, 0xd9, 0xcc, 0xcc, 0x1a, 0x98, 0xbc, 0x33,
  0x36, 0x41, 0x6d, 0x22, 0x01, 0xba, 0x2f, 0x0c, 0x3f, 0x59, 0x57, 0x5d,
  0x21, 0xf0, 0x64, 0xd5, 0x19, 0x49, 0xb1, 0x05, 0x40, 0x3c, 0xd5, 0xff,
  0xfa, 0x49, 0xef, 0xf6, 0x1a, 0x53, 0xfe, 0x61, 0xb4, 0x5e, 0x1e, 0xff,
  0xee, 0x4c, 0x67, 0x92, 0x5d, 0xee, 0x14, 0x9c, 0xf0, 0xab, 0xc6, 0x58,
  0x1d, 0x50, 0x90, 0xfc, 0x51, 0x42, 0x44, 0xd6, 0xa4, 0x04, 0x4b, 0x9f,
  0x32, 0xac, 0x34, 0xe2, 0x5d, 0x68, 0xd0, 0xd5, 0xb6, 0x73, 0x9b, 0xff,
  0x2b, 0x60, 0xac, 0xa3, 0x97, 0x37, 0xf9, 0x9b, 0x27, 0x10, 0xad, 0xea,
  0x70, 0x6e, 0x38, 0xa4, 0x37, 0xce, 0xf2, 0x07, 0x13, 0x41, 0x0b, 0x07,
  0xea, 0x9f, 0xe7, 0x5a, 0x13, 0xed, 0x9a, 0xd6, 0x5b, 0xce, 0xb0, 0x13,
  0xed, 0xfe, 0xb5, 0xd6, 0xd9, 0xd1, 0x9f, 0x19, 0xe7, 0x1b, 0x2a, 0xf9,
  0x9d, 0x6c, 0x29, 0x55, 0x37, 0x2e, 0xd8, 0xd5, 0x6f, 0x65, 0xe1, 0x5b,
  0x3d, 0xb3, 0x41, 0x18, 0x14, 0x16, 0x6a, 0x0a, 0xbb, 0xd8, 0x40, 0xda,
  0x6f, 0x64, 0x3b, 0x6b, 0x9d, 0xdc, 0x1a, 0xa8, 0x58, 0x90, 0x11, 0xc8,
  0xbf, 0x0a, 0xc7, 0x5e, 0x53, 0xe9, 0x1a, 0x1c, 0x1f, 0xd9, 0xb3, 0x00,
  0x31, 0xb2, 0x0c, 0x1d, 0x39, 0x3b, 0xec, 0x4f, 0x6d, 0x33, 0x0a, 0xc8,
  0x95, 0xc5, 0x10, 0x27, 0xdf, 0xdd, 0xeb, 0x92, 0xf2, 0xc7, 0xc6, 0xaf,
  0xd6, 0xfa, 0xfa, 0xcd, 0xa1, 0x92, 0x44, 0x49, 0x38, 0x9e, 0x68, 0x05,
  0xf7, 0x2d, 0x9a, 0xab, 0x50, 0x60, 0xfb, 0x1a, 0xef, 0xb2, 0x96, 0xb3,
  0x12, 0xc9, 0x37, 0xa0, 0x5c, 0xf7, 0x4e, 0xae, 0xdf, 0xee, 0xeb, 0xfd,
  0x95, 0xef, 0x6c, 0x4a, 0x51, 0xec, 0xce, 0xdd, 0xed, 0xcf, 0xcf, 0x55,
  0x06, 0xfc, 0xff, 0xff, 0x04, 0x00, 0x00, 0x00, 0x80, 0x00, 0x00, 0x00,
  0x00, 0x00, 0x00, 0x00, 0xe7, 0xff, 0xff, 0xff, 0x00, 0x00, 0x00, 0x00,
  0x0b, 0x00, 0x00, 0x00, 0x0e, 0x00, 0x00, 0x00, 0x09, 0x00, 0x00, 0x00,
  0xf8, 0xff, 0xff, 0xff, 0xfc, 0xff, 0xff, 0xff, 0xec, 0xff, 0xff, 0xff,
  0xee, 0xff, 0xff, 0xff, 0xf5, 0xff, 0xff, 0xff, 0x24, 0x00, 0x00, 0x00,
  0x05, 0x00, 0x00, 0x00, 0xf6, 0xff, 0xff, 0xff, 0x0a, 0x00, 0x00, 0x00,
  0xee, 0xff, 0xff, 0xff, 0xfe, 0xff, 0xff, 0xff, 0x09, 0x00, 0x00, 0x00,
  0xec, 0xff, 0xff, 0xff, 0x1d, 0x00, 0x00, 0x00, 0x12, 0x00, 0x00, 0x00,
  0x00, 0x00, 0x00, 0x00, 0x8b, 0x00, 0x00, 0x00, 0xe1, 0xff, 0xff, 0xff,
  0xe6, 0xff, 0xff, 0xff, 0xf5, 0xff, 0xff, 0xff, 0xf1, 0xff, 0xff, 0xff,
  0x0b, 0x00, 0x00, 0x00, 0x1c, 0x00, 0x00, 0x00, 0xf7, 0xff, 0xff, 0xff,
  0x00, 0x00, 0x00, 0x00, 0xf4, 0xff, 0xff, 0xff, 0x92, 0xfc, 0xff, 0xff,
  0x04, 0x00, 0x00, 0x00, 0x00, 0x02, 0x00, 0x00, 0xc7, 0x61, 0x2b, 0x5a,
  0x66, 0x46, 0x16, 0x0c, 0x0e, 0xcb, 0xae, 0x27, 0x15, 0x9e, 0x12, 0x00,
  0xb8, 0xa6, 0xf0, 0x27, 0xa7, 0x5b, 0x54, 0xc3, 0x59, 0x10, 0xf0, 0x08,
  0x97, 0xdd, 0x3a, 0xbe, 0xe6, 0x43, 0x13, 0x9b, 0x98, 0x32, 0x61, 0x16,
  0x55, 0xd9, 0xf8, 0x04, 0x4e, 0xe8, 0xc7, 0x38, 0xe6, 0xfb, 0xb6, 0xe7,
  0xcf, 0x2f, 0xbb, 0x5b, 0x65, 0x62, 0x4d, 0x2c, 0x33, 0x17, 0x2b, 0xa1,
  0x09, 0x1b, 0x40, 0xd5, 0xd8, 0xf3, 0xee, 0xdf, 0x37, 0xe6, 0xb8, 0x4d,
  0x89, 0x48, 0xd2, 0x98, 0x5a, 0xe3, 0xb2, 0x62, 0x69, 0xd3, 0x34, 0xcb,
  0xd7, 0x58, 0xf4, 0x24, 0x35, 0xb0, 0x4b, 0xd1, 0x07, 0x13, 0x15, 0xef,
  0xcd, 0x4c, 0xb7, 0x7f, 0x03, 0x48, 0x08, 0xfa, 0x39, 0xe0, 0xd0, 0x41,
  0xcb, 0xf2, 0x00, 0xd6, 0xd2, 0xc9, 0xb3, 0x1b, 0x0b, 0x07, 0x67, 0xba,
  0xfc, 0xe7, 0xf6, 0xe2, 0x16, 0xec, 0x13, 0x9c, 0xef, 0x03, 0xc2, 0xd5,
  0x23, 0xd7, 0xe5, 0xdd, 0x64, 0xae, 0x9d, 0xe6, 0x44, 0x9f, 0xa0, 0x69,
  0x3f, 0x28, 0x33, 0xe9, 0x51, 0x23, 0xf3, 0x34, 0x32, 0x1d, 0xe9, 0x38,
  0xdd, 0xc2, 0xae, 0x5a, 0x4d, 0x9e, 0x5b, 0xc0, 0xec, 0x3d, 0x31, 0xc1,
  0x04, 0x62, 0x9b, 0xe7, 0x3e, 0xc3, 0x13, 0x15, 0x62, 0x3c, 0x1f, 0xb8,
  0x41, 0x67, 0xf5, 0x59, 0x51, 0xca, 0x26, 0xef, 0x5a, 0x16, 0x59, 0xe8,
  0xfa, 0x9d, 0xfd, 0x5e, 0x26, 0xfe, 0xcf, 0xc8, 0x63, 0xea, 0xdf, 0xff,
  0xac, 0x08, 0xa2, 0xd5, 0xdb, 0x4a, 0x35, 0xb4, 0x67, 0xc5, 0x9b, 0xbb,
  0xb8, 0xb4, 0x0a, 0xfc, 0xe3, 0x36, 0xc0, 0x38, 0x62, 0x21, 0xa4, 0x45,
  0xe4, 0xb5, 0xc3, 0xcc, 0x30, 0x54, 0xf3, 0x2c, 0x5a, 0xf6, 0xe5, 0x2d,
  0xf2, 0x08, 0xdb, 0x47, 0xa2, 0xa9, 0xeb, 0x5a, 0xc8, 0x4e, 0xad, 0xe5,
  0x42, 0x2b, 0x2a, 0xf6, 0x9d, 0xb7, 0x21, 0x4f, 0x9c, 0xfb, 0x59, 0x5a,
  0x2b, 0x2a, 0xf5, 0xf5, 0xa2, 0xc2, 0xf4, 0x1e, 0xa6, 0xaf, 0x16, 0x47,
  0xe8, 0x12, 0x18, 0x12, 0xac, 0xcd, 0x2b, 0xd3, 0x54, 0xe1, 0xac, 0x3b,
  0xba, 0xfe, 0x5c, 0x5e, 0xd7, 0xb6, 0xad, 0x39, 0xfc, 0xdf, 0xab, 0xeb,
  0xc5, 0xd1, 0x01, 0xb9, 0xf4, 0x2c, 0xa0, 0xe0, 0x43, 0x17, 0xc1, 0xcb,
  0x0d, 0xc7, 0x2d, 0x9f, 0x23, 0xa1, 0x58, 0x0e, 0x59, 0x3e, 0xc9, 0xbb,
  0xfc, 0x4b, 0x15, 0x9e, 0xd1, 0x3f, 0x3c, 0x1d, 0x0d, 0xeb, 0x58, 0x37,
  0x38, 0x65, 0x09, 0xf3, 0xc2, 0x4a, 0xdf, 0x43, 0x1f, 0x64, 0xb2, 0x11,
  0xb9, 0xa6, 0xc3, 0x36, 0x3a, 0xb2, 0xf9, 0x42, 0x39, 0xb5, 0x9c, 0x0b,
  0x62, 0xa1, 0xc1, 0xb2, 0xa2, 0x34, 0x27, 0x12, 0x2a, 0x32, 0x56, 0xcf,
  0x43, 0xda, 0x4d, 0x4c, 0x14, 0x10, 0xe3, 0x01, 0xd7, 0x6d, 0xb4, 0x16,
  0x6c, 0xe8, 0xa2, 0x50, 0x3c, 0x56, 0xb1, 0x41, 0x55, 0x59, 0xb6, 0xb2,
  0x14, 0x0c, 0x4c, 0xd9, 0x28, 0x47, 0xd3, 0x3f, 0x05, 0x07, 0x2b, 0xd4,
  0xcc, 0x34, 0xac, 0x1d, 0x00, 0x38, 0xc1, 0x67, 0x0e, 0xb2, 0x43, 0x43,
  0x78, 0xf4, 0x31, 0xb9, 0x1e, 0xff, 0xa9, 0x64, 0x05, 0xd5, 0x5c, 0x1b,
  0x35, 0xd9, 0xbb, 0x38, 0xe8, 0xd7, 0xf3, 0x6e, 0x65, 0xdc, 0x0b, 0x3f,
  0xd7, 0x1d, 0x40, 0xec, 0x9d, 0xbe, 0xc4, 0x60, 0x3f, 0x40, 0xe5, 0x46,
  0xd4, 0x3c, 0xdc, 0x0f, 0xd4, 0xd8, 0x0b, 0xd8, 0xc5, 0x41, 0x72, 0x0c,
  0xf6, 0x3c, 0x3e, 0x9f, 0x01, 0x13, 0xa2, 0x19, 0xf8, 0xaf, 0x58, 0xef,
  0x2b, 0xf8, 0xbf, 0x1a, 0xdc, 0xc0, 0xce, 0x5b, 0x40, 0x41, 0x6c, 0x10,
  0xdc, 0xef, 0x2b, 0xf4, 0x0e, 0x54, 0xcb, 0x00, 0xc4, 0xaa, 0x5f, 0x95,
  0x21, 0xac, 0xa8, 0xfe, 0x9e, 0xfe, 0xff, 0xff, 0x04, 0x00, 0x00, 0x00,
  0x40, 0x00, 0x00, 0x00, 0xff, 0xff, 0xff, 0xff, 0xdc, 0xff, 0xff, 0xff,
  0x17, 0x00, 0x00, 0x00, 0x27, 0x00, 0x00, 0x00, 0xf3, 0xff, 0xff, 0xff,
  0xff, 0xff, 0xff, 0xff, 0x00, 0x00, 0x00, 0x00, 0xf6, 0xff, 0xff, 0xff,
  0xe3, 0xff, 0xff, 0xff, 0x00, 0x00, 0x00, 0x00, 0x13, 0x00, 0x00, 0x00,
  0x45, 0x00, 0x00, 0x00, 0xde, 0xff, 0xff, 0xff, 0x03, 0x00, 0x00, 0x00,
  0x08, 0x00, 0x00, 0x00, 0xfb, 0xff, 0xff, 0xff, 0xea, 0xfe, 0xff, 0xff,
  0x04, 0x00, 0x00, 0x00, 0x50, 0x00, 0x00, 0x00, 0xf8, 0xcc, 0x58, 0x18,
  0xe9, 0xf3, 0xa5, 0xa2, 0x1f, 0x73, 0x47, 0x3b, 0xcf, 0xe9, 0x7a, 0x06,
  0x19, 0x18, 0xd9, 0x5b, 0x85, 0x0d, 0x52, 0xbf, 0x7e, 0xe4, 0x47, 0xb8,
  0x5f, 0xdb, 0x75, 0x23, 0xee, 0xe3, 0xcb, 0xa1, 0x98, 0x50, 0xfb, 0x62,
  0x22, 0x3e, 0x7c, 0x44, 0x57, 0xcd, 0x30, 0x39, 0x7b, 0x30, 0x99, 0x17,
  0x8a, 0x3b, 0xde, 0xe1, 0x71, 0x8f, 0x6b, 0x26, 0x53, 0xdd, 0xee, 0xea,
  0xc1, 0xd9, 0xb4, 0x3a, 0x43, 0x7f, 0x06, 0x31, 0x5a, 0xff, 0x50, 0x85,
  0x24, 0x33, 0xd0, 0x70, 0x46, 0xff, 0xff, 0xff, 0x04, 0x00, 0x00, 0x00,
  0x14, 0x00, 0x00, 0x00, 0x35, 0x00, 0x00, 0x00, 0xe4, 0xff, 0xff, 0xff,
  0x2c, 0x00, 0x00, 0x00, 0xe1, 0xff, 0xff, 0xff, 0xf1, 0xff, 0xff, 0xff,
  0x34, 0xff, 0xff, 0xff, 0x38, 0xff, 0xff, 0xff, 0x0f, 0x00, 0x00, 0x00,
  0x4d, 0x4c, 0x49, 0x52, 0x20, 0x43, 0x6f, 0x6e, 0x76, 0x65, 0x72, 0x74,
  0x65, 0x64, 0x2e, 0x00, 0x01, 0x00, 0x00, 0x00, 0x14, 0x00, 0x00, 0x00,
  0x00, 0x00, 0x0e, 0x00, 0x18, 0x00, 0x14, 0x00, 0x10, 0x00, 0x0c, 0x00,
  0x08, 0x00, 0x04, 0x00, 0x0e, 0x00, 0x00, 0x00, 0x14, 0x00, 0x00, 0x00,
  0x1c, 0x00, 0x00, 0x00, 0x60, 0x01, 0x00, 0x00, 0x64, 0x01, 0x00, 0x00,
  0x68, 0x01, 0x00, 0x00, 0x04, 0x00, 0x00, 0x00, 0x6d, 0x61, 0x69, 0x6e,
  0x00, 0x00, 0x00, 0x00, 0x05, 0x00, 0x00, 0x00, 0x08, 0x01, 0x00, 0x00,
  0xc0, 0x00, 0x00, 0x00, 0x88, 0x00, 0x00, 0x00, 0x50, 0x00, 0x00, 0x00,
  0x14, 0x00, 0x00, 0x00, 0x00, 0x00, 0x0e, 0x00, 0x1a, 0x00, 0x14, 0x00,
  0x10, 0x00, 0x0c, 0x00, 0x0b, 0x00, 0x04, 0x00, 0x0e, 0x00, 0x00, 0x00,
  0x1c, 0x00, 0x00, 0x00, 0x00, 0x00, 0x00, 0x09, 0x1c, 0x00, 0x00, 0x00,
  0x20, 0x00, 0x00, 0x00, 0x01, 0x00, 0x00, 0x00, 0x00, 0x00, 0x06, 0x00,
  0x08, 0x00, 0x04, 0x00, 0x06, 0x00, 0x00, 0x00, 0x00, 0x00, 0x80, 0x3f,
  0x01, 0x00, 0x00, 0x00, 0x0d, 0x00, 0x00, 0x00, 0x01, 0x00, 0x00, 0x00,
  0x0c, 0x00, 0x00, 0x00, 0x62, 0xff, 0xff, 0xff, 0x14, 0x00, 0x00, 0x00,
  0x00, 0x00, 0x00, 0x08, 0x10, 0x00, 0x00, 0x00, 0x14, 0x00, 0x00, 0x00,
  0x04, 0x00, 0x04, 0x00, 0x04, 0x00, 0x00, 0x00, 0x01, 0x00, 0x00, 0x00,
  0x0c, 0x00, 0x00, 0x00, 0x03, 0x00, 0x00, 0x00, 0x0b, 0x00, 0x00, 0x00,
  0x02, 0x00, 0x00, 0x00, 0x01, 0x00, 0x00, 0x00, 0x96, 0xff, 0xff, 0xff,
  0x10, 0x00, 0x00, 0x00, 0x00, 0x00, 0x00, 0x08, 0x10, 0x00, 0x00, 0x00,
  0x14, 0x00, 0x00, 0x00, 0x86, 0xff, 0xff, 0xff, 0x00, 0x00, 0x00, 0x01,
  0x01, 0x00, 0x00, 0x00, 0x0b, 0x00, 0x00, 0x00, 0x03, 0x00, 0x00, 0x00,
  0x0a, 0x00, 0x00, 0x00, 0x04, 0x00, 0x00, 0x00, 0x03, 0x00, 0x00, 0x00,
  0xca, 0xff, 0xff, 0xff, 0x10, 0x00, 0x00, 0x00, 0x00, 0x00, 0x00, 0x08,
  0x10, 0x00, 0x00, 0x00, 0x14, 0x00, 0x00, 0x00, 0xba, 0xff, 0xff, 0xff,
  0x00, 0x00, 0x00, 0x01, 0x01, 0x00, 0x00, 0x00, 0x0a, 0x00, 0x00, 0x00,
  0x03, 0x00, 0x00, 0x00, 0x09, 0x00, 0x00, 0x00, 0x06, 0x00, 0x00, 0x00,
  0x05, 0x00, 0x00, 0x00, 0x00, 0x00, 0x0e, 0x00, 0x16, 0x00, 0x00, 0x00,
  0x10, 0x00, 0x0c, 0x00, 0x0b, 0x00, 0x04, 0x00, 0x0e, 0x00, 0x00, 0x00,
  0x18, 0x00, 0x00, 0x00, 0x00, 0x00, 0x00, 0x08, 0x18, 0x00, 0x00, 0x00,
  0x1c, 0x00, 0x00, 0x00, 0x00, 0x00, 0x06, 0x00, 0x08, 0x00, 0x07, 0x00,
  0x06, 0x00, 0x00, 0x00, 0x00, 0x00, 0x00, 0x01, 0x01, 0x00, 0x00, 0x00,
  0x09, 0x00, 0x00, 0x00, 0x03, 0x00, 0x00, 0x00, 0x00, 0x00, 0x00, 0x00,
  0x08, 0x00, 0x00, 0x00, 0x07, 0x00, 0x00, 0x00, 0x01, 0x00, 0x00, 0x00,
  0x0d, 0x00, 0x00, 0x00, 0x01, 0x00, 0x00, 0x00, 0x00, 0x00, 0x00, 0x00,
  0x0e, 0x00, 0x00, 0x00, 0xf4, 0x06, 0x00, 0x00, 0x64, 0x06, 0x00, 0x00,
  0xe0, 0x05, 0x00, 0x00, 0x64, 0x05, 0x00, 0x00, 0xf8, 0x04, 0x00, 0x00,
  0x7c, 0x04, 0x00, 0x00, 0x10, 0x04, 0x00, 0x00, 0x9c, 0x03, 0x00, 0x00,
  0x30, 0x03, 0x00, 0x00, 0x84, 0x02, 0x00, 0x00, 0xd0, 0x01, 0x00, 0x00,
  0x1c, 0x01, 0x00, 0x00, 0x80, 0x00, 0x00, 0x00, 0x04, 0x00, 0x00, 0x00,
  0x5a, 0xf9, 0xff, 0xff, 0x00, 0x00, 0x00, 0x01, 0x18, 0x00, 0x00, 0x00,
  0x20, 0x00, 0x00, 0x00, 0x3c, 0x00, 0x00, 0x00, 0x0e, 0x00, 0x00, 0x00,
  0x00, 0x00, 0x00, 0x09, 0x50, 0x00, 0x00, 0x00, 0x02, 0x00, 0x00, 0x00,
  0xff, 0xff, 0xff, 0xff, 0x05, 0x00, 0x00, 0x00, 0x44, 0xf9, 0xff, 0xff,
  0x08, 0x00, 0x00, 0x00, 0x10, 0x00, 0x00, 0x00, 0x01, 0x00, 0x00, 0x00,
  0x80, 0xff, 0xff, 0xff, 0xff, 0xff, 0xff, 0xff, 0x01, 0x00, 0x00, 0x00,
  0x00, 0x00, 0x80, 0x3b, 0x19, 0x00, 0x00, 0x00, 0x53, 0x74, 0x61, 0x74,
  0x65, 0x66, 0x75, 0x6c, 0x50, 0x61, 0x72, 0x74, 0x69, 0x74, 0x69, 0x6f,
  0x6e, 0x65, 0x64, 0x43, 0x61, 0x6c, 0x6c, 0x3a, 0x30, 0x00, 0x00, 0x00,
  0x02, 0x00, 0x00, 0x00, 0x01, 0x00, 0x00, 0x00, 0x05, 0x00, 0x00, 0x00,
  0xd2, 0xf9, 0xff, 0xff, 0x00, 0x00, 0x00, 0x01, 0x18, 0x00, 0x00, 0x00,
  0x20, 0x00, 0x00, 0x00, 0x40, 0x00, 0x00, 0x00, 0x0d, 0x00, 0x00, 0x00,
  0x00, 0x00, 0x00, 0x09, 0x70, 0x00, 0x00, 0x00, 0x02, 0x00, 0x00, 0x00,
  0xff, 0xff, 0xff, 0xff, 0x05, 0x00, 0x00, 0x00, 0xbc, 0xf9, 0xff, 0xff,
  0x08, 0x00, 0x00, 0x00, 0x14, 0x00, 0x00, 0x00, 0x01, 0x00, 0x00, 0x00,
  0xbe, 0xff, 0xff, 0xff, 0xff, 0xff, 0xff, 0xff, 0x00, 0x00, 0x00, 0x00,
  0x01, 0x00, 0x00, 0x00, 0x59, 0x7a, 0x89, 0x3e, 0x34, 0x00, 0x00, 0x00,
  0x73, 0x65, 0x71, 0x75, 0x65, 0x6e, 0x74, 0x69, 0x61, 0x6c, 0x2f, 0x64,
  0x65, 0x6e, 0x73, 0x65, 0x5f, 0x33, 0x2f, 0x4d, 0x61, 0x74, 0x4d, 0x75,
  0x6c, 0x3b, 0x73, 0x65, 0x71, 0x75, 0x65, 0x6e, 0x74, 0x69, 0x61, 0x6c,
  0x2f, 0x64, 0x65, 0x6e, 0x73, 0x65, 0x5f, 0x33, 0x2f, 0x42, 0x69, 0x61,
  0x73, 0x41, 0x64, 0x64, 0x00, 0x00, 0x00, 0x00, 0x02, 0x00, 0x00, 0x00,
  0x01, 0x00, 0x00, 0x00, 0x05, 0x00, 0x00, 0x00, 0x6a, 0xfa, 0xff, 0xff,
  0x00, 0x00, 0x00, 0x01, 0x18, 0x00, 0x00, 0x00, 0x20, 0x00, 0x00, 0x00,
  0x40, 0x00, 0x00, 0x00, 0x0c, 0x00, 0x00, 0x00, 0x00, 0x00, 0x00, 0x09,
  0x88, 0x00, 0x00, 0x00, 0x02, 0x00, 0x00, 0x00, 0xff, 0xff, 0xff, 0xff,
  0x10, 0x00, 0x00, 0x00, 0x54, 0xfa, 0xff, 0xff, 0x08, 0x00, 0x00, 0x00,
  0x14, 0x00, 0x00, 0x00, 0x01, 0x00, 0x00, 0x00, 0x80, 0xff, 0xff, 0xff,
  0xff, 0xff, 0xff, 0xff, 0x00, 0x00, 0x00, 0x00, 0x01, 0x00, 0x00, 0x00,
  0x8f, 0x6b, 0x5c, 0x3e, 0x4c, 0x00, 0x00, 0x00, 0x73, 0x65, 0x71, 0x75,
  0x65, 0x6e, 0x74, 0x69, 0x61, 0x6c, 0x2f, 0x64, 0x65, 0x6e, 0x73, 0x65,
  0x5f, 0x32, 0x2f, 0x4d, 0x61, 0x74, 0x4d, 0x75, 0x6c, 0x3b, 0x73, 0x65,
  0x71, 0x75, 0x65, 0x6e, 0x74, 0x69, 0x61, 0x6c, 0x2f, 0x64, 0x65, 0x6e,
  0x73, 0x65, 0x5f, 0x32, 0x2f, 0x52, 0x65, 0x6c, 0x75, 0x3b, 0x73, 0x65,
  0x71, 0x75, 0x65, 0x6e, 0x74, 0x69, 0x61, 0x6c, 0x2f, 0x64, 0x65, 0x6e,
  0x73, 0x65, 0x5f, 0x32, 0x2f, 0x42, 0x69, 0x61, 0x73, 0x41, 0x64, 0x64,
  0x00, 0x00, 0x00, 0x00, 0x02, 0x00, 0x00, 0x00, 0x01, 0x00, 0x00, 0x00,
  0x10, 0x00, 0x00, 0x00, 0x1a, 0xfb, 0xff, 0xff, 0x00, 0x00, 0x00, 0x01,
  0x18, 0x00, 0x00, 0x00, 0x20, 0x00, 0x00, 0x00, 0x40, 0x00, 0x00, 0x00,
  0x0b, 0x00, 0x00, 0x00, 0x00, 0x00, 0x00, 0x09, 0x88, 0x00, 0x00, 0x00,
  0x02, 0x00, 0x00, 0x00, 0xff, 0xff, 0xff, 0xff, 0x20, 0x00, 0x00, 0x00,
  0x04, 0xfb, 0xff, 0xff, 0x08, 0x00, 0x00, 0x00, 0x14, 0x00, 0x00, 0x00,
  0x01, 0x00, 0x00, 0x00, 0x80, 0xff, 0xff, 0xff, 0xff, 0xff, 0xff, 0xff,
  0x00, 0x00, 0x00, 0x00, 0x01, 0x00, 0x00, 0x00, 0xa1, 0xbb, 0xd4, 0x3e,
  0x4c, 0x00, 0x00, 0x00, 0x73, 0x65, 0x71, 0x75, 0x65, 0x6e, 0x74, 0x69,
  0x61, 0x6c, 0x2f, 0x64, 0x65, 0x6e, 0x73, 0x65, 0x5f, 0x31, 0x2f, 0x4d,
  0x61, 0x74, 0x4d, 0x75, 0x6c, 0x3b, 0x73, 0x65, 0x71, 0x75, 0x65, 0x6e,
  0x74, 0x69, 0x61, 0x6c, 0x2f, 0x64, 0x65, 0x6e, 0x73, 0x65, 0x5f, 0x31,
  0x2f, 0x52, 0x65, 0x6c, 0x75, 0x3b, 0x73, 0x65, 0x71, 0x75, 0x65, 0x6e,
  0x74, 0x69, 0x61, 0x6c, 0x2f, 0x64, 0x65, 0x6e, 0x73, 0x65, 0x5f, 0x31,
  0x2f, 0x42, 0x69, 0x61, 0x73, 0x41, 0x64, 0x64, 0x00, 0x00, 0x00, 0x00,
  0x02, 0x00, 0x00, 0x00, 0x01, 0x00, 0x00, 0x00, 0x20, 0x00, 0x00, 0x00,
  0xca, 0xfb, 0xff, 0xff, 0x00, 0x00, 0x00, 0x01, 0x18, 0x00, 0x00, 0x00,
  0x20, 0x00, 0x00, 0x00, 0x40, 0x00, 0x00, 0x00, 0x0a, 0x00, 0x00, 0x00,
  0x00, 0x00, 0x00, 0x09, 0x80, 0x00, 0x00, 0x00, 0x02, 0x00, 0x00, 0x00,
  0xff, 0xff, 0xff, 0xff, 0x20, 0x00, 0x00, 0x00, 0xb4, 0xfb, 0xff, 0xff,
  0x08, 0x00, 0x00, 0x00, 0x14, 0x00, 0x00, 0x00, 0x01, 0x00, 0x00, 0x00,
  0x80, 0xff, 0xff, 0xff, 0xff, 0xff, 0xff, 0xff, 0x00, 0x00, 0x00, 0x00,
  0x01, 0x00, 0x00, 0x00, 0x3c, 0x95, 0x15, 0x3f, 0x46, 0x00, 0x00, 0x00,
  0x73, 0x65, 0x71, 0x75, 0x65, 0x6e, 0x74, 0x69, 0x61, 0x6c, 0x2f, 0x64,
  0x65, 0x6e, 0x73, 0x65, 0x2f, 0x4d, 0x61, 0x74, 0x4d, 0x75, 0x6c, 0x3b,
  0x73, 0x65, 0x71, 0x75, 0x65, 0x6e, 0x74, 0x69, 0x61, 0x6c, 0x2f, 0x64,
  0x65, 0x6e, 0x73, 0x65, 0x2f, 0x52, 0x65, 0x6c, 0x75, 0x3b, 0x73, 0x65,
  0x71, 0x75, 0x65, 0x6e, 0x74, 0x69, 0x61, 0x6c, 0x2f, 0x64, 0x65, 0x6e,
  0x73, 0x65, 0x2f, 0x42, 0x69, 0x61, 0x73, 0x41, 0x64, 0x64, 0x00, 0x00,
  0x02, 0x00, 0x00, 0x00, 0x01, 0x00, 0x00, 0x00, 0x20, 0x00, 0x00, 0x00,
  0xfe, 0xfc, 0xff, 0xff, 0x00, 0x00, 0x00, 0x01, 0x14, 0x00, 0x00, 0x00,
  0x34, 0x00, 0x00, 0x00, 0x09, 0x00, 0x00, 0x00, 0x00, 0x00, 0x00, 0x09,
  0x44, 0x00, 0x00, 0x00, 0x4c, 0xfc, 0xff, 0xff, 0x08, 0x00, 0x00, 0x00,
  0x14, 0x00, 0x00, 0x00, 0x01, 0x00, 0x00, 0x00, 0x00, 0x00, 0x00, 0x00,
  0x00, 0x00, 0x00, 0x00, 0x00, 0x00, 0x00, 0x00, 0x01, 0x00, 0x00, 0x00,
  0x80, 0xdd, 0x04, 0x3b, 0x17, 0x00, 0x00, 0x00, 0x73, 0x65, 0x71, 0x75,
  0x65, 0x6e, 0x74, 0x69, 0x61, 0x6c, 0x2f, 0x64, 0x65, 0x6e, 0x73, 0x65,
  0x2f, 0x4d, 0x61, 0x74, 0x4d, 0x75, 0x6c, 0x00, 0x02, 0x00, 0x00, 0x00,
  0x20, 0x00, 0x00, 0x00, 0xb4, 0x00, 0x00, 0x00, 0x66, 0xfd, 0xff, 0xff,
  0x00, 0x00, 0x00, 0x01, 0x14, 0x00, 0x00, 0x00, 0x30, 0x00, 0x00, 0x00,
  0x08, 0x00, 0x00, 0x00, 0x00, 0x00, 0x00, 0x02, 0x50, 0x00, 0x00, 0x00,
  0xb4, 0xfc, 0xff, 0xff, 0x08, 0x00, 0x00, 0x00, 0x10, 0x00, 0x00, 0x00,
  0x01, 0x00, 0x00, 0x00, 0x00, 0x00, 0x00, 0x00, 0x00, 0x00, 0x00, 0x00,
  0x01, 0x00, 0x00, 0x00, 0x83, 0x6a, 0x50, 0x3a, 0x27, 0x00, 0x00, 0x00,
  0x73, 0x65, 0x71, 0x75, 0x65, 0x6e, 0x74, 0x69, 0x61, 0x6c, 0x2f, 0x64,
  0x65, 0x6e, 0x73, 0x65, 0x2f, 0x42, 0x69, 0x61, 0x73, 0x41, 0x64, 0x64,
  0x2f, 0x52, 0x65, 0x61, 0x64, 0x56, 0x61, 0x72, 0x69, 0x61, 0x62, 0x6c,
  0x65, 0x4f, 0x70, 0x00, 0x01, 0x00, 0x00, 0x00, 0x20, 0x00, 0x00, 0x00,
  0xd6, 0xfd, 0xff, 0xff, 0x00, 0x00, 0x00, 0x01, 0x14, 0x00, 0x00, 0x00,
  0x30, 0x00, 0x00, 0x00, 0x07, 0x00, 0x00, 0x00, 0x00, 0x00, 0x00, 0x09,
  0x44, 0x00, 0x00, 0x00, 0x24, 0xfd, 0xff, 0xff, 0x08, 0x00, 0x00, 0x00,
  0x10, 0x00, 0x00, 0x00, 0x01, 0x00, 0x00, 0x00, 0x00, 0x00, 0x00, 0x00,
  0x00, 0x00, 0x00, 0x00, 0x01, 0x00, 0x00, 0x00, 0x7e, 0x53, 0x34, 0x3b,
  0x19, 0x00, 0x00, 0x00, 0x73, 0x65, 0x71, 0x75, 0x65, 0x6e, 0x74, 0x69,
  0x61, 0x6c, 0x2f, 0x64, 0x65, 0x6e, 0x73, 0x65, 0x5f, 0x31, 0x2f, 0x4d,
  0x61, 0x74, 0x4d, 0x75, 0x6c, 0x00, 0x00, 0x00, 0x02, 0x00, 0x00, 0x00,
  0x20, 0x00, 0x00, 0x00, 0x20, 0x00, 0x00, 0x00, 0x3e, 0xfe, 0xff, 0xff,
  0x00, 0x00, 0x00, 0x01, 0x14, 0x00, 0x00, 0x00, 0x34, 0x00, 0x00, 0x00,
  0x06, 0x00, 0x00, 0x00, 0x00, 0x00, 0x00, 0x02, 0x58, 0x00, 0x00, 0x00,
  0x8c, 0xfd, 0xff, 0xff, 0x08, 0x00, 0x00, 0x00, 0x14, 0x00, 0x00, 0x00,
  0x01, 0x00, 0x00, 0x00, 0x00, 0x00, 0x00, 0x00, 0x00, 0x00, 0x00, 0x00,
  0x00, 0x00, 0x00, 0x00, 0x01, 0x00, 0x00, 0x00, 0x6e, 0xbb, 0xd2, 0x3a,
  0x29, 0x00, 0x00, 0x00, 0x73, 0x65, 0x71, 0x75, 0x65, 0x6e, 0x74, 0x69,
  0x61, 0x6c, 0x2f, 0x64, 0x65, 0x6e, 0x73, 0x65, 0x5f, 0x31, 0x2f, 0x42,
  0x69, 0x61, 0x73, 0x41, 0x64, 0x64, 0x2f, 0x52, 0x65, 0x61, 0x64, 0x56,
  0x61, 0x72, 0x69, 0x61, 0x62, 0x6c, 0x65, 0x4f, 0x70, 0x00, 0x00, 0x00,
  0x01, 0x00, 0x00, 0x00, 0x20, 0x00, 0x00, 0x00, 0xb6, 0xfe, 0xff, 0xff,
  0x00, 0x00, 0x00, 0x01, 0x14, 0x00, 0x00, 0x00, 0x30, 0x00, 0x00, 0x00,
  0x05, 0x00, 0x00, 0x00, 0x00, 0x00, 0x00, 0x09, 0x44, 0x00, 0x00, 0x00,
  0x04, 0xfe, 0xff, 0xff, 0x08, 0x00, 0x00, 0x00, 0x10, 0x00, 0x00, 0x00,
  0x01, 0x00, 0x00, 0x00, 0x00, 0x00, 0x00, 0x00, 0x00, 0x00, 0x00, 0x00,
  0x01, 0x00, 0x00, 0x00, 0x48, 0x09, 0x61, 0x3b, 0x19, 0x00, 0x00, 0x00,
  0x73, 0x65, 0x71, 0x75, 0x65, 0x6e, 0x74, 0x69, 0x61, 0x6c, 0x2f, 0x64,
  0x65, 0x6e, 0x73, 0x65, 0x5f, 0x32, 0x2f, 0x4d, 0x61, 0x74, 0x4d, 0x75,
  0x6c, 0x00, 0x00, 0x00, 0x02, 0x00, 0x00, 0x00, 0x10, 0x00, 0x00, 0x00,
  0x20, 0x00, 0x00, 0x00, 0x1e, 0xff, 0xff, 0xff, 0x00, 0x00, 0x00, 0x01,
  0x14, 0x00, 0x00, 0x00, 0x34, 0x00, 0x00, 0x00, 0x04, 0x00, 0x00, 0x00,
  0x00, 0x00, 0x00, 0x02, 0x58, 0x00, 0x00, 0x00, 0x6c, 0xfe, 0xff, 0xff,
  0x08, 0x00, 0x00, 0x00, 0x14, 0x00, 0x00, 0x00, 0x01, 0x00, 0x00, 0x00,
  0x00, 0x00, 0x00, 0x00, 0x00, 0x00, 0x00, 0x00, 0x00, 0x00, 0x00, 0x00,
  0x01, 0x00, 0x00, 0x00, 0x9f, 0x00, 0xbb, 0x3a, 0x29, 0x00, 0x00, 0x00,
  0x73, 0x65, 0x71, 0x75, 0x65, 0x6e, 0x74, 0x69, 0x61, 0x6c, 0x2f, 0x64,
  0x65, 0x6e, 0x73, 0x65, 0x5f, 0x32, 0x2f, 0x42, 0x69, 0x61, 0x73, 0x41,
  0x64, 0x64, 0x2f, 0x52, 0x65, 0x61, 0x64, 0x56, 0x61, 0x72, 0x69, 0x61,
  0x62, 0x6c, 0x65, 0x4f, 0x70, 0x00, 0x00, 0x00, 0x01, 0x00, 0x00, 0x00,
  0x10, 0x00, 0x00, 0x00, 0x96, 0xff, 0xff, 0xff, 0x00, 0x00, 0x00, 0x01,
  0x14, 0x00, 0x00, 0x00, 0x30, 0x00, 0x00, 0x00, 0x03, 0x00, 0x00, 0x00,
  0x00, 0x00, 0x00, 0x09, 0x44, 0x00, 0x00, 0x00, 0xe4, 0xfe, 0xff, 0xff,
  0x08, 0x00, 0x00, 0x00, 0x10, 0x00, 0x00, 0x00, 0x01, 0x00, 0x00, 0x00,
  0x00, 0x00, 0x00, 0x00, 0x00, 0x00, 0x00, 0x00, 0x01, 0x00, 0x00, 0x00,
  0x75, 0xb8, 0x87, 0x3b, 0x19, 0x00, 0x00, 0x00, 0x73, 0x65, 0x71, 0x75,
  0x65, 0x6e, 0x74, 0x69, 0x61, 0x6c, 0x2f, 0x64, 0x65, 0x6e, 0x73, 0x65,
  0x5f, 0x33, 0x2f, 0x4d, 0x61, 0x74, 0x4d, 0x75, 0x6c, 0x00, 0x00, 0x00,
  0x02, 0x00, 0x00, 0x00, 0x05, 0x00, 0x00, 0x00, 0x10, 0x00, 0x00, 0x00,
  0x00, 0x00, 0x16, 0x00, 0x1c, 0x00, 0x18, 0x00, 0x17, 0x00, 0x10, 0x00,
  0x0c, 0x00, 0x08, 0x00, 0x00, 0x00, 0x00, 0x00, 0x00, 0x00, 0x07, 0x00,
  0x16, 0x00, 0x00, 0x00, 0x00, 0x00, 0x00, 0x01, 0x14, 0x00, 0x00, 0x00,
  0x30, 0x00, 0x00, 0x00, 0x02, 0x00, 0x00, 0x00, 0x00, 0x00, 0x00, 0x02,
  0x54, 0x00, 0x00, 0x00, 0x64, 0xff, 0xff, 0xff, 0x08, 0x00, 0x00, 0x00,
  0x10, 0x00, 0x00, 0x00, 0x01, 0x00, 0x00, 0x00, 0x00, 0x00, 0x00, 0x00,
  0x00, 0x00, 0x00, 0x00, 0x01, 0x00, 0x00, 0x00, 0x15, 0xb7, 0x69, 0x3a,
  0x29, 0x00, 0x00, 0x00, 0x73, 0x65, 0x71, 0x75, 0x65, 0x6e, 0x74, 0x69,
  0x61, 0x6c, 0x2f, 0x64, 0x65, 0x6e, 0x73, 0x65, 0x5f, 0x33, 0x2f, 0x42,
  0x69, 0x61, 0x73, 0x41, 0x64, 0x64, 0x2f, 0x52, 0x65, 0x61, 0x64, 0x56,
  0x61, 0x72, 0x69, 0x61, 0x62, 0x6c, 0x65, 0x4f, 0x70, 0x00, 0x00, 0x00,
  0x01, 0x00, 0x00, 0x00, 0x05, 0x00, 0x00, 0x00, 0x00, 0x00, 0x16, 0x00,
  0x20, 0x00, 0x1c, 0x00, 0x1b, 0x00, 0x14, 0x00, 0x10, 0x00, 0x0c, 0x00,
  0x00, 0x00, 0x00, 0x00, 0x08, 0x00, 0x07, 0x00, 0x16, 0x00, 0x00, 0x00,
  0x00, 0x00, 0x00, 0x01, 0x18, 0x00, 0x00, 0x00, 0x2c, 0x00, 0x00, 0x00,
  0x48, 0x00, 0x00, 0x00, 0x01, 0x00, 0x00, 0x00, 0x00, 0x00, 0x00, 0x09,
  0x60, 0x00, 0x00, 0x00, 0x02, 0x00, 0x00, 0x00, 0xff, 0xff, 0xff, 0xff,
  0xb4, 0x00, 0x00, 0x00, 0x0c, 0x00, 0x0c, 0x00, 0x00, 0x00, 0x00, 0x00,
  0x08, 0x00, 0x04, 0x00, 0x0c, 0x00, 0x00, 0x00, 0x08, 0x00, 0x00, 0x00,
  0x10, 0x00, 0x00, 0x00, 0x01, 0x00, 0x00, 0x00, 0x80, 0xff, 0xff, 0xff,
  0xff, 0xff, 0xff, 0xff, 0x01, 0x00, 0x00, 0x00, 0xc9, 0xc8, 0xc8, 0x3e,
  0x1d, 0x00, 0x00, 0x00, 0x73, 0x65, 0x72, 0x76, 0x69, 0x6e, 0x67, 0x5f,
  0x64, 0x65, 0x66, 0x61, 0x75, 0x6c, 0x74, 0x5f, 0x64, 0x65, 0x6e, 0x73,
  0x65, 0x5f, 0x69, 0x6e, 0x70, 0x75, 0x74, 0x3a, 0x30, 0x00, 0x00, 0x00,
  0x02, 0x00, 0x00, 0x00, 0x01, 0x00, 0x00, 0x00, 0xb4, 0x00, 0x00, 0x00,
  0x02, 0x00, 0x00, 0x00, 0x24, 0x00, 0x00, 0x00, 0x04, 0x00, 0x00, 0x00,
  0xf0, 0xff, 0xff, 0xff, 0x19, 0x00, 0x00, 0x00, 0x02, 0x00, 0x00, 0x00,
  0x00, 0x00, 0x00, 0x19, 0x0c, 0x00, 0x10, 0x00, 0x0f, 0x00, 0x00, 0x00,
  0x08, 0x00, 0x04, 0x00, 0x0c, 0x00, 0x00, 0x00, 0x09, 0x00, 0x00, 0x00,
  0x04, 0x00, 0x00, 0x00, 0x00, 0x00, 0x00, 0x09
};
unsigned int model_linear_tflite_len = 10712;
